{
  "version": "1.0",
  "truncation": null,
  "padding": null,
  "added_tokens": [
    {
      "id": 0,
      "content": "[PAD]",
      "single_word": false,
      "lstrip": false,
      "rstrip": false,
      "normalized": false,
      "special": true
    },
    {
      "id": 1,
      "content": "[UNK]",
      "single_word": false,
      "lstrip": false,
      "rstrip": false,
      "normalized": false,
      "special": true
    },
    {
      "id": 2,
      "content": "[CLS]",
      "single_word": false,
      "lstrip": false,
      "rstrip": false,
      "normalized": false,
      "special": true
    },
    {
      "id": 3,
      "content": "[SEP]",
      "single_word": false,
      "lstrip": false,
      "rstrip": false,
      "normalized": false,
      "special": true
    },
    {
      "id": 4,
      "content": "[MASK]",
      "single_word": false,
      "lstrip": false,
      "rstrip": false,
      "normalized": false,
      "special": true
    }
  ],
  "normalizer": null,
  "pre_tokenizer": {
    "type": "Whitespace"
  },
  "post_processor": null,
  "decoder": null,
  "model": {
    "type": "BPE",
    "dropout": null,
    "unk_token": "[UNK]",
    "continuing_subword_prefix": null,
    "end_of_word_suffix": null,
    "fuse_unk": false,
    "byte_fallback": false,
    "ignore_merges": false,
    "vocab": {
      "[PAD]": 0,
      "[UNK]": 1,
      "[CLS]": 2,
      "[SEP]": 3,
      "[MASK]": 4,
      "!": 5,
      "\"": 6,
      "#": 7,
      "$": 8,
      "%": 9,
      "&": 10,
      "'": 11,
      "(": 12,
      ")": 13,
      "*": 14,
      "+": 15,
      ",": 16,
      "-": 17,
      ".": 18,
      "/": 19,
      "0": 20,
      "1": 21,
      "2": 22,
      "3": 23,
      "4": 24,
      "5": 25,
      "6": 26,
      "7": 27,
      "8": 28,
      "9": 29,
      ":": 30,
      ";": 31,
      "<": 32,
      "=": 33,
      ">": 34,
      "?": 35,
      "@": 36,
      "A": 37,
      "B": 38,
      "C": 39,
      "D": 40,
      "E": 41,
      "F": 42,
      "G": 43,
      "H": 44,
      "I": 45,
      "J": 46,
      "K": 47,
      "L": 48,
      "M": 49,
      "N": 50,
      "O": 51,
      "P": 52,
      "Q": 53,
      "R": 54,
      "S": 55,
      "T": 56,
      "U": 57,
      "V": 58,
      "W": 59,
      "X": 60,
      "Y": 61,
      "Z": 62,
      "[": 63,
      "\\": 64,
      "]": 65,
      "^": 66,
      "_": 67,
      "`": 68,
      "a": 69,
      "b": 70,
      "c": 71,
      "d": 72,
      "e": 73,
      "f": 74,
      "g": 75,
      "h": 76,
      "i": 77,
      "j": 78,
      "k": 79,
      "l": 80,
      "m": 81,
      "n": 82,
      "o": 83,
      "p": 84,
      "q": 85,
      "r": 86,
      "s": 87,
      "t": 88,
      "u": 89,
      "v": 90,
      "w": 91,
      "x": 92,
      "y": 93,
      "z": 94,
      "{": 95,
      "|": 96,
      "}": 97,
      "~": 98,
      "": 99,
      "": 100,
      "": 101,
      "": 102,
      "¡": 103,
      "¢": 104,
      "£": 105,
      "¥": 106,
      "§": 107,
      "©": 108,
      "«": 109,
      "­": 110,
      "®": 111,
      "¯": 112,
      "°": 113,
      "±": 114,
      "²": 115,
      "³": 116,
      "´": 117,
      "µ": 118,
      "¶": 119,
      "·": 120,
      "¹": 121,
      "º": 122,
      "»": 123,
      "¼": 124,
      "½": 125,
      "¾": 126,
      "¿": 127,
      "À": 128,
      "Á": 129,
      "Â": 130,
      "Ä": 131,
      "Å": 132,
      "Æ": 133,
      "Ç": 134,
      "È": 135,
      "É": 136,
      "Ì": 137,
      "Í": 138,
      "Î": 139,
      "Ñ": 140,
      "Ó": 141,
      "Ô": 142,
      "Ö": 143,
      "×": 144,
      "Ø": 145,
      "Ú": 146,
      "Ü": 147,
      "Ý": 148,
      "Þ": 149,
      "ß": 150,
      "à": 151,
      "á": 152,
      "â": 153,
      "ã": 154,
      "ä": 155,
      "å": 156,
      "æ": 157,
      "ç": 158,
      "è": 159,
      "é": 160,
      "ê": 161,
      "ë": 162,
      "ì": 163,
      "í": 164,
      "î": 165,
      "ï": 166,
      "ð": 167,
      "ñ": 168,
      "ò": 169,
      "ó": 170,
      "ô": 171,
      "õ": 172,
      "ö": 173,
      "÷": 174,
      "ø": 175,
      "ù": 176,
      "ú": 177,
      "û": 178,
      "ü": 179,
      "ý": 180,
      "þ": 181,
      "ÿ": 182,
      "Ā": 183,
      "ā": 184,
      "ă": 185,
      "ą": 186,
      "Ć": 187,
      "ć": 188,
      "Č": 189,
      "č": 190,
      "Ď": 191,
      "Đ": 192,
      "đ": 193,
      "ē": 194,
      "ė": 195,
      "ę": 196,
      "ě": 197,
      "ğ": 198,
      "ġ": 199,
      "Ħ": 200,
      "ħ": 201,
      "ĩ": 202,
      "Ī": 203,
      "ī": 204,
      "İ": 205,
      "ı": 206,
      "ķ": 207,
      "Ľ": 208,
      "ľ": 209,
      "Ł": 210,
      "ł": 211,
      "ń": 212,
      "ņ": 213,
      "ň": 214,
      "ŋ": 215,
      "Ō": 216,
      "ō": 217,
      "ŏ": 218,
      "ő": 219,
      "Œ": 220,
      "œ": 221,
      "Ř": 222,
      "ř": 223,
      "Ś": 224,
      "ś": 225,
      "Ş": 226,
      "ş": 227,
      "Š": 228,
      "š": 229,
      "Ţ": 230,
      "ţ": 231,
      "ť": 232,
      "ũ": 233,
      "ū": 234,
      "ŭ": 235,
      "ů": 236,
      "ų": 237,
      "ŵ": 238,
      "ŷ": 239,
      "Ź": 240,
      "ź": 241,
      "Ż": 242,
      "ż": 243,
      "Ž": 244,
      "ž": 245,
      "Ə": 246,
      "ƒ": 247,
      "ơ": 248,
      "ư": 249,
      "ǂ": 250,
      "ǎ": 251,
      "ǐ": 252,
      "ǒ": 253,
      "ǔ": 254,
      "ǫ": 255,
      "Ș": 256,
      "ș": 257,
      "Ț": 258,
      "ț": 259,
      "ɐ": 260,
      "ɑ": 261,
      "ɒ": 262,
      "ɓ": 263,
      "ɔ": 264,
      "ɕ": 265,
      "ɖ": 266,
      "ɗ": 267,
      "ə": 268,
      "ɛ": 269,
      "ɟ": 270,
      "ɡ": 271,
      "ɢ": 272,
      "ɣ": 273,
      "ɦ": 274,
      "ɧ": 275,
      "ɨ": 276,
      "ɪ": 277,
      "ɬ": 278,
      "ɯ": 279,
      "ɲ": 280,
      "ɴ": 281,
      "ɵ": 282,
      "ɸ": 283,
      "ɻ": 284,
      "ɾ": 285,
      "ʀ": 286,
      "ʁ": 287,
      "ʂ": 288,
      "ʃ": 289,
      "ʇ": 290,
      "ʈ": 291,
      "ʊ": 292,
      "ʋ": 293,
      "ʌ": 294,
      "ʍ": 295,
      "ʎ": 296,
      "ʒ": 297,
      "ʔ": 298,
      "ʕ": 299,
      "ʘ": 300,
      "ʝ": 301,
      "ʟ": 302,
      "ʰ": 303,
      "ʲ": 304,
      "ʷ": 305,
      "ʻ": 306,
      "ʼ": 307,
      "ʾ": 308,
      "ʿ": 309,
      "ˀ": 310,
      "ˁ": 311,
      "ˈ": 312,
      "ˌ": 313,
      "ː": 314,
      "˔": 315,
      "˘": 316,
      "˚": 317,
      "˞": 318,
      "ˠ": 319,
      "ˤ": 320,
      "˥": 321,
      "˦": 322,
      "˧": 323,
      "˨": 324,
      "˩": 325,
      "̀": 326,
      "́": 327,
      "̂": 328,
      "̃": 329,
      "̄": 330,
      "̆": 331,
      "̈": 332,
      "̊": 333,
      "̌": 334,
      "̍": 335,
      "̐": 336,
      "̚": 337,
      "̝": 338,
      "̞": 339,
      "̟": 340,
      "̠": 341,
      "̣": 342,
      "̤": 343,
      "̥": 344,
      "̧": 345,
      "̩": 346,
      "̪": 347,
      "̯": 348,
      "̰": 349,
      "̱": 350,
      "̲": 351,
      "̺": 352,
      "̽": 353,
      "͍": 354,
      "͘": 355,
      "͜": 356,
      "͡": 357,
      "Α": 358,
      "Β": 359,
      "Γ": 360,
      "Δ": 361,
      "Ε": 362,
      "Η": 363,
      "Θ": 364,
      "Ι": 365,
      "Κ": 366,
      "Λ": 367,
      "Μ": 368,
      "Ν": 369,
      "Ξ": 370,
      "Ο": 371,
      "Π": 372,
      "Σ": 373,
      "Τ": 374,
      "Φ": 375,
      "Χ": 376,
      "Ψ": 377,
      "Ω": 378,
      "ά": 379,
      "έ": 380,
      "ή": 381,
      "ί": 382,
      "α": 383,
      "β": 384,
      "γ": 385,
      "δ": 386,
      "ε": 387,
      "ζ": 388,
      "η": 389,
      "θ": 390,
      "ι": 391,
      "κ": 392,
      "λ": 393,
      "μ": 394,
      "ν": 395,
      "ξ": 396,
      "ο": 397,
      "π": 398,
      "ρ": 399,
      "ς": 400,
      "σ": 401,
      "τ": 402,
      "υ": 403,
      "φ": 404,
      "χ": 405,
      "ψ": 406,
      "ω": 407,
      "ό": 408,
      "ύ": 409,
      "ώ": 410,
      "ϕ": 411,
      "Ј": 412,
      "А": 413,
      "Б": 414,
      "В": 415,
      "Г": 416,
      "Д": 417,
      "Е": 418,
      "З": 419,
      "И": 420,
      "Й": 421,
      "К": 422,
      "М": 423,
      "Н": 424,
      "О": 425,
      "П": 426,
      "Р": 427,
      "С": 428,
      "Т": 429,
      "Ч": 430,
      "Ш": 431,
      "Я": 432,
      "а": 433,
      "б": 434,
      "в": 435,
      "г": 436,
      "д": 437,
      "е": 438,
      "ж": 439,
      "з": 440,
      "и": 441,
      "й": 442,
      "к": 443,
      "л": 444,
      "м": 445,
      "н": 446,
      "о": 447,
      "п": 448,
      "р": 449,
      "с": 450,
      "т": 451,
      "у": 452,
      "х": 453,
      "ц": 454,
      "ч": 455,
      "ш": 456,
      "ъ": 457,
      "ы": 458,
      "ь": 459,
      "э": 460,
      "ю": 461,
      "я": 462,
      "ё": 463,
      "і": 464,
      "ј": 465,
      "љ": 466,
      "ў": 467,
      "Կ": 468,
      "Հ": 469,
      "Մ": 470,
      "Ս": 471,
      "ա": 472,
      "բ": 473,
      "ե": 474,
      "թ": 475,
      "ի": 476,
      "կ": 477,
      "հ": 478,
      "ղ": 479,
      "յ": 480,
      "ն": 481,
      "շ": 482,
      "ո": 483,
      "պ": 484,
      "ս": 485,
      "վ": 486,
      "տ": 487,
      "ր": 488,
      "ց": 489,
      "ւ": 490,
      "ք": 491,
      "֤": 492,
      "֫": 493,
      "ֵ": 494,
      "ֶ": 495,
      "ּ": 496,
      "א": 497,
      "ב": 498,
      "ג": 499,
      "ד": 500,
      "ו": 501,
      "ח": 502,
      "י": 503,
      "כ": 504,
      "ל": 505,
      "ם": 506,
      "מ": 507,
      "ן": 508,
      "נ": 509,
      "ס": 510,
      "ע": 511,
      "צ": 512,
      "ר": 513,
      "ש": 514,
      "ת": 515,
      "،": 516,
      "ء": 517,
      "أ": 518,
      "إ": 519,
      "ا": 520,
      "ب": 521,
      "ة": 522,
      "ت": 523,
      "ث": 524,
      "ج": 525,
      "ح": 526,
      "خ": 527,
      "د": 528,
      "ر": 529,
      "ز": 530,
      "س": 531,
      "ش": 532,
      "ص": 533,
      "ط": 534,
      "ع": 535,
      "غ": 536,
      "ف": 537,
      "ق": 538,
      "ك": 539,
      "ل": 540,
      "م": 541,
      "ن": 542,
      "ه": 543,
      "و": 544,
      "ي": 545,
      "ی": 546,
      "ं": 547,
      "अ": 548,
      "आ": 549,
      "उ": 550,
      "क": 551,
      "ग": 552,
      "ट": 553,
      "ड": 554,
      "त": 555,
      "द": 556,
      "न": 557,
      "प": 558,
      "ब": 559,
      "भ": 560,
      "म": 561,
      "य": 562,
      "र": 563,
      "ल": 564,
      "श": 565,
      "ष": 566,
      "स": 567,
      "ह": 568,
      "़": 569,
      "ा": 570,
      "ि": 571,
      "ी": 572,
      "ु": 573,
      "े": 574,
      "ो": 575,
      "्": 576,
      "।": 577,
      "॥": 578,
      "ক": 579,
      "ত": 580,
      "ন": 581,
      "ব": 582,
      "ম": 583,
      "ল": 584,
      "়": 585,
      "া": 586,
      "ি": 587,
      "্": 588,
      "க": 589,
      "ன": 590,
      "ள": 591,
      "்": 592,
      "్": 593,
      "್": 594,
      "്": 595,
      "්": 596,
      "ก": 597,
      "ข": 598,
      "ง": 599,
      "จ": 600,
      "ช": 601,
      "ฐ": 602,
      "ณ": 603,
      "ต": 604,
      "ท": 605,
      "น": 606,
      "ป": 607,
      "พ": 608,
      "ม": 609,
      "ย": 610,
      "ร": 611,
      "ล": 612,
      "ว": 613,
      "ะ": 614,
      "ั": 615,
      "า": 616,
      "ิ": 617,
      "ี": 618,
      "ู": 619,
      "฿": 620,
      "เ": 621,
      "แ": 622,
      "็": 623,
      "่": 624,
      "้": 625,
      "์": 626,
      "་": 627,
      "།": 628,
      "င": 629,
      "ဆ": 630,
      "န": 631,
      "ရ": 632,
      "္": 633,
      "်": 634,
      "გ": 635,
      "დ": 636,
      "ვ": 637,
      "ზ": 638,
      "ი": 639,
      "კ": 640,
      "ო": 641,
      "რ": 642,
      "ს": 643,
      "უ": 644,
      "ც": 645,
      "ძ": 646,
      "წ": 647,
      "ხ": 648,
      "ჯ": 649,
      "჻": 650,
      "፡": 651,
      "ᛃ": 652,
      "ᛋ": 653,
      "ᛟ": 654,
      "ត": 655,
      "ន": 656,
      "ព": 657,
      "ម": 658,
      "រ": 659,
      "ស": 660,
      "ហ": 661,
      "ី": 662,
      "ុ": 663,
      "ោ": 664,
      "ះ": 665,
      "់": 666,
      "្": 667,
      "᷉": 668,
      "ḍ": 669,
      "ḑ": 670,
      "Ḥ": 671,
      "ḥ": 672,
      "ḩ": 673,
      "ḷ": 674,
      "ḻ": 675,
      "ṃ": 676,
      "ṅ": 677,
      "ṇ": 678,
      "ṉ": 679,
      "ṛ": 680,
      "ṟ": 681,
      "Ṣ": 682,
      "ṣ": 683,
      "ṭ": 684,
      "ṯ": 685,
      "ạ": 686,
      "ả": 687,
      "ấ": 688,
      "ầ": 689,
      "ẩ": 690,
      "ẫ": 691,
      "ậ": 692,
      "ắ": 693,
      "ằ": 694,
      "ẵ": 695,
      "ặ": 696,
      "ẹ": 697,
      "ế": 698,
      "ề": 699,
      "ể": 700,
      "ễ": 701,
      "ệ": 702,
      "ị": 703,
      "Ọ": 704,
      "ọ": 705,
      "ỏ": 706,
      "ố": 707,
      "ồ": 708,
      "ổ": 709,
      "ỗ": 710,
      "ộ": 711,
      "ớ": 712,
      "ờ": 713,
      "ở": 714,
      "ợ": 715,
      "ụ": 716,
      "ủ": 717,
      "ứ": 718,
      "ừ": 719,
      "ử": 720,
      "ữ": 721,
      "ự": 722,
      "ỳ": 723,
      "ỵ": 724,
      "ỹ": 725,
      "ἀ": 726,
      "ἄ": 727,
      "Ἀ": 728,
      "ἐ": 729,
      "Ἕ": 730,
      "ἡ": 731,
      "Ἠ": 732,
      "ἰ": 733,
      "ἱ": 734,
      "ἵ": 735,
      "ἶ": 736,
      "Ἰ": 737,
      "ὁ": 738,
      "Ὄ": 739,
      "ὐ": 740,
      "ὑ": 741,
      "ὡ": 742,
      "ὰ": 743,
      "ὲ": 744,
      "ὴ": 745,
      "ὶ": 746,
      "ὸ": 747,
      "ὺ": 748,
      "ὼ": 749,
      "ᾶ": 750,
      "ῆ": 751,
      "ῖ": 752,
      "ῦ": 753,
      "Ῥ": 754,
      "ῶ": 755,
      "ῷ": 756,
      "​": 757,
      "‌": 758,
      "‍": 759,
      "‐": 760,
      "‑": 761,
      "‒": 762,
      "–": 763,
      "—": 764,
      "―": 765,
      "‘": 766,
      "’": 767,
      "‚": 768,
      "“": 769,
      "”": 770,
      "„": 771,
      "†": 772,
      "‡": 773,
      "•": 774,
      "…": 775,
      "‰": 776,
      "′": 777,
      "″": 778,
      "※": 779,
      "‼": 780,
      "‿": 781,
      "⁄": 782,
      "⁊": 783,
      "⁡": 784,
      "⁺": 785,
      "₁": 786,
      "₂": 787,
      "₃": 788,
      "₡": 789,
      "₣": 790,
      "₤": 791,
      "₦": 792,
      "₨": 793,
      "₩": 794,
      "₫": 795,
      "€": 796,
      "₱": 797,
      "₹": 798,
      "℃": 799,
      "ℓ": 800,
      "№": 801,
      "™": 802,
      "⅓": 803,
      "⅔": 804,
      "⅛": 805,
      "⅜": 806,
      "⅝": 807,
      "⅞": 808,
      "←": 809,
      "↑": 810,
      "→": 811,
      "↓": 812,
      "↔": 813,
      "↗": 814,
      "↦": 815,
      "↪": 816,
      "⇄": 817,
      "⇌": 818,
      "∀": 819,
      "∂": 820,
      "∆": 821,
      "∈": 822,
      "∑": 823,
      "−": 824,
      "∕": 825,
      "∖": 826,
      "∗": 827,
      "∘": 828,
      "√": 829,
      "∝": 830,
      "∞": 831,
      "∩": 832,
      "∪": 833,
      "∴": 834,
      "∼": 835,
      "≈": 836,
      "≠": 837,
      "≡": 838,
      "≢": 839,
      "≤": 840,
      "≥": 841,
      "≪": 842,
      "⊂": 843,
      "⊕": 844,
      "⊗": 845,
      "⊙": 846,
      "⊥": 847,
      "⋅": 848,
      "⋯": 849,
      "⌊": 850,
      "⌋": 851,
      "①": 852,
      "②": 853,
      "④": 854,
      "█": 855,
      "▲": 856,
      "★": 857,
      "☆": 858,
      "☉": 859,
      "♀": 860,
      "♠": 861,
      "♣": 862,
      "♥": 863,
      "♦": 864,
      "♩": 865,
      "♪": 866,
      "♭": 867,
      "♮": 868,
      "♯": 869,
      "⟦": 870,
      "⟧": 871,
      "⟨": 872,
      "⟩": 873,
      "⩽": 874,
      "ⴷ": 875,
      "、": 876,
      "。": 877,
      "〈": 878,
      "〉": 879,
      "「": 880,
      "」": 881,
      "『": 882,
      "』": 883,
      "〜": 884,
      "あ": 885,
      "い": 886,
      "ぅ": 887,
      "う": 888,
      "お": 889,
      "か": 890,
      "が": 891,
      "き": 892,
      "く": 893,
      "ぐ": 894,
      "こ": 895,
      "さ": 896,
      "し": 897,
      "じ": 898,
      "す": 899,
      "ず": 900,
      "せ": 901,
      "た": 902,
      "ち": 903,
      "つ": 904,
      "て": 905,
      "と": 906,
      "ど": 907,
      "な": 908,
      "の": 909,
      "は": 910,
      "ば": 911,
      "ふ": 912,
      "へ": 913,
      "ぽ": 914,
      "ま": 915,
      "み": 916,
      "め": 917,
      "よ": 918,
      "ら": 919,
      "り": 920,
      "る": 921,
      "ん": 922,
      "ァ": 923,
      "ア": 924,
      "ィ": 925,
      "イ": 926,
      "ウ": 927,
      "ェ": 928,
      "エ": 929,
      "ォ": 930,
      "オ": 931,
      "カ": 932,
      "ガ": 933,
      "キ": 934,
      "ギ": 935,
      "ク": 936,
      "グ": 937,
      "ケ": 938,
      "コ": 939,
      "ゴ": 940,
      "サ": 941,
      "ザ": 942,
      "シ": 943,
      "ジ": 944,
      "ス": 945,
      "ズ": 946,
      "セ": 947,
      "ゼ": 948,
      "ソ": 949,
      "タ": 950,
      "ダ": 951,
      "チ": 952,
      "ッ": 953,
      "ツ": 954,
      "テ": 955,
      "デ": 956,
      "ト": 957,
      "ド": 958,
      "ナ": 959,
      "ニ": 960,
      "ノ": 961,
      "ハ": 962,
      "バ": 963,
      "パ": 964,
      "ヒ": 965,
      "ビ": 966,
      "フ": 967,
      "ブ": 968,
      "プ": 969,
      "ベ": 970,
      "ペ": 971,
      "ボ": 972,
      "ポ": 973,
      "マ": 974,
      "ミ": 975,
      "ム": 976,
      "メ": 977,
      "モ": 978,
      "ャ": 979,
      "ヤ": 980,
      "ュ": 981,
      "ユ": 982,
      "ョ": 983,
      "ラ": 984,
      "リ": 985,
      "ル": 986,
      "レ": 987,
      "ロ": 988,
      "ワ": 989,
      "ン": 990,
      "ヴ": 991,
      "・": 992,
      "ー": 993,
      "一": 994,
      "三": 995,
      "上": 996,
      "下": 997,
      "不": 998,
      "丑": 999,
      "世": 1000,
      "个": 1001,
      "久": 1002,
      "之": 1003,
      "乙": 1004,
      "二": 1005,
      "五": 1006,
      "亦": 1007,
      "京": 1008,
      "人": 1009,
      "介": 1010,
      "仙": 1011,
      "令": 1012,
      "伝": 1013,
      "住": 1014,
      "佛": 1015,
      "作": 1016,
      "併": 1017,
      "侠": 1018,
      "個": 1019,
      "催": 1020,
      "像": 1021,
      "光": 1022,
      "内": 1023,
      "写": 1024,
      "冴": 1025,
      "净": 1026,
      "凪": 1027,
      "分": 1028,
      "列": 1029,
      "刘": 1030,
      "初": 1031,
      "判": 1032,
      "別": 1033,
      "前": 1034,
      "剛": 1035,
      "剣": 1036,
      "劇": 1037,
      "動": 1038,
      "勝": 1039,
      "北": 1040,
      "匹": 1041,
      "千": 1042,
      "卒": 1043,
      "南": 1044,
      "博": 1045,
      "厘": 1046,
      "双": 1047,
      "台": 1048,
      "号": 1049,
      "同": 1050,
      "名": 1051,
      "君": 1052,
      "呼": 1053,
      "哈": 1054,
      "四": 1055,
      "回": 1056,
      "国": 1057,
      "國": 1058,
      "土": 1059,
      "坂": 1060,
      "場": 1061,
      "境": 1062,
      "士": 1063,
      "外": 1064,
      "大": 1065,
      "天": 1066,
      "太": 1067,
      "女": 1068,
      "姉": 1069,
      "婷": 1070,
      "子": 1071,
      "字": 1072,
      "季": 1073,
      "孩": 1074,
      "守": 1075,
      "宋": 1076,
      "宗": 1077,
      "寔": 1078,
      "寺": 1079,
      "小": 1080,
      "少": 1081,
      "尾": 1082,
      "巨": 1083,
      "廷": 1084,
      "式": 1085,
      "弘": 1086,
      "张": 1087,
      "張": 1088,
      "彼": 1089,
      "後": 1090,
      "心": 1091,
      "思": 1092,
      "愛": 1093,
      "憲": 1094,
      "戦": 1095,
      "房": 1096,
      "所": 1097,
      "撃": 1098,
      "攻": 1099,
      "新": 1100,
      "方": 1101,
      "日": 1102,
      "旦": 1103,
      "早": 1104,
      "星": 1105,
      "春": 1106,
      "時": 1107,
      "書": 1108,
      "月": 1109,
      "朝": 1110,
      "木": 1111,
      "本": 1112,
      "李": 1113,
      "杜": 1114,
      "束": 1115,
      "条": 1116,
      "東": 1117,
      "松": 1118,
      "枚": 1119,
      "條": 1120,
      "植": 1121,
      "椎": 1122,
      "楽": 1123,
      "様": 1124,
      "機": 1125,
      "正": 1126,
      "武": 1127,
      "歩": 1128,
      "死": 1129,
      "殻": 1130,
      "氏": 1131,
      "民": 1132,
      "気": 1133,
      "氣": 1134,
      "水": 1135,
      "氷": 1136,
      "氾": 1137,
      "法": 1138,
      "活": 1139,
      "流": 1140,
      "浅": 1141,
      "海": 1142,
      "溜": 1143,
      "瀬": 1144,
      "火": 1145,
      "無": 1146,
      "版": 1147,
      "特": 1148,
      "王": 1149,
      "瓦": 1150,
      "生": 1151,
      "用": 1152,
      "田": 1153,
      "町": 1154,
      "界": 1155,
      "畫": 1156,
      "皮": 1157,
      "真": 1158,
      "礮": 1159,
      "神": 1160,
      "秋": 1161,
      "積": 1162,
      "空": 1163,
      "章": 1164,
      "箇": 1165,
      "節": 1166,
      "米": 1167,
      "約": 1168,
      "紋": 1169,
      "綾": 1170,
      "緑": 1171,
      "編": 1172,
      "群": 1173,
      "羽": 1174,
      "耕": 1175,
      "聖": 1176,
      "肖": 1177,
      "膺": 1178,
      "芝": 1179,
      "花": 1180,
      "草": 1181,
      "莊": 1182,
      "蛍": 1183,
      "街": 1184,
      "裁": 1185,
      "装": 1186,
      "西": 1187,
      "見": 1188,
      "語": 1189,
      "説": 1190,
      "議": 1191,
      "词": 1192,
      "谷": 1193,
      "路": 1194,
      "軍": 1195,
      "転": 1196,
      "輝": 1197,
      "逆": 1198,
      "進": 1199,
      "道": 1200,
      "遠": 1201,
      "邪": 1202,
      "部": 1203,
      "野": 1204,
      "量": 1205,
      "金": 1206,
      "銀": 1207,
      "銖": 1208,
      "錬": 1209,
      "隊": 1210,
      "隴": 1211,
      "隻": 1212,
      "雄": 1213,
      "集": 1214,
      "雪": 1215,
      "零": 1216,
      "靈": 1217,
      "青": 1218,
      "韓": 1219,
      "風": 1220,
      "鬼": 1221,
      "魂": 1222,
      "魄": 1223,
      "魔": 1224,
      "鼓": 1225,
      "거": 1226,
      "루": 1227,
      "마": 1228,
      "막": 1229,
      "말": 1230,
      "사": 1231,
      "인": 1232,
      "전": 1233,
      "지": 1234,
      "짓": 1235,
      "투": 1236,
      "하": 1237,
      "ﬁ": 1238,
      "﻿": 1239,
      "！": 1240,
      "＆": 1241,
      "（": 1242,
      "）": 1243,
      "，": 1244,
      "－": 1245,
      "：": 1246,
      "＝": 1247,
      "？": 1248,
      "～": 1249,
      "｢": 1250,
      "･": 1251,
      "￥": 1252,
      "th": 1253,
      "in": 1254,
      "er": 1255,
      "an": 1256,
      "the": 1257,
      "on": 1258,
      "ed": 1259,
      "re": 1260,
      "at": 1261,
      "en": 1262,
      "or": 1263,
      "al": 1264,
      "st": 1265,
      "ar": 1266,
      "and": 1267,
      "as": 1268,
      "of": 1269,
      "ing": 1270,
      "es": 1271,
      "to": 1272,
      "is": 1273,
      "it": 1274,
      "ou": 1275,
      "ic": 1276,
      "ion": 1277,
      "le": 1278,
      "he": 1279,
      "ro": 1280,
      "il": 1281,
      "ac": 1282,
      "ent": 1283,
      "ad": 1284,
      "se": 1285,
      "un": 1286,
      "am": 1287,
      "om": 1288,
      "be": 1289,
      "ly": 1290,
      "was": 1291,
      "for": 1292,
      "ch": 1293,
      "ve": 1294,
      "de": 1295,
      "ur": 1296,
      "ol": 1297,
      "ir": 1298,
      "The": 1299,
      "im": 1300,
      "-@": 1301,
      "@-@": 1302,
      "ig": 1303,
      "ver": 1304,
      "ter": 1305,
      "wh": 1306,
      "ow": 1307,
      "ith": 1308,
      "ce": 1309,
      "ay": 1310,
      "con": 1311,
      "id": 1312,
      "ation": 1313,
      "ct": 1314,
      "with": 1315,
      "that": 1316,
      "ag": 1317,
      "te": 1318,
      "by": 1319,
      "us": 1320,
      "ot": 1321,
      "ere": 1322,
      "el": 1323,
      "ri": 1324,
      "ul": 1325,
      "ap": 1326,
      "ut": 1327,
      "19": 1328,
      "et": 1329,
      "res": 1330,
      "ain": 1331,
      "ers": 1332,
      "op": 1333,
      "pl": 1334,
      "com": 1335,
      "his": 1336,
      "rom": 1337,
      "um": 1338,
      "all": 1339,
      "00": 1340,
      "oun": 1341,
      "ab": 1342,
      "unk": 1343,
      "mo": 1344,
      "ist": 1345,
      "su": 1346,
      "ne": 1347,
      "pro": 1348,
      "sh": 1349,
      "from": 1350,
      "pe": 1351,
      "In": 1352,
      "cl": 1353,
      "ate": 1354,
      "are": 1355,
      "art": 1356,
      "li": 1357,
      "tr": 1358,
      "ther": 1359,
      "igh": 1360,
      "os": 1361,
      "di": 1362,
      "em": 1363,
      "ex": 1364,
      "ber": 1365,
      "est": 1366,
      "ich": 1367,
      "were": 1368,
      "ld": 1369,
      "ard": 1370,
      "ill": 1371,
      "oc": 1372,
      "ak": 1373,
      "ast": 1374,
      "ies": 1375,
      "ant": 1376,
      "ong": 1377,
      "per": 1378,
      "qu": 1379,
      "gh": 1380,
      "ment": 1381,
      "ated": 1382,
      "ive": 1383,
      "out": 1384,
      "man": 1385,
      "ame": 1386,
      "ity": 1387,
      "fe": 1388,
      "ess": 1389,
      "our": 1390,
      "had": 1391,
      "od": 1392,
      "end": 1393,
      "ish": 1394,
      "ack": 1395,
      "ort": 1396,
      "one": 1397,
      "als": 1398,
      "ear": 1399,
      "av": 1400,
      "over": 1401,
      "ge": 1402,
      "tw": 1403,
      "af": 1404,
      "which": 1405,
      "ip": 1406,
      "ough": 1407,
      "ound": 1408,
      "but": 1409,
      "not": 1410,
      "vi": 1411,
      "act": 1412,
      "gr": 1413,
      "ass": 1414,
      "ord": 1415,
      "ally": 1416,
      "ave": 1417,
      "str": 1418,
      "ight": 1419,
      "ine": 1420,
      "her": 1421,
      "ary": 1422,
      "rit": 1423,
      "its": 1424,
      "du": 1425,
      "iv": 1426,
      "ud": 1427,
      "pr": 1428,
      "ep": 1429,
      "ian": 1430,
      "if": 1431,
      "St": 1432,
      "Ch": 1433,
      "ore": 1434,
      "20": 1435,
      "fir": 1436,
      "200": 1437,
      "up": 1438,
      "ew": 1439,
      "ould": 1440,
      "ia": 1441,
      "ous": 1442,
      "own": 1443,
      "der": 1444,
      "au": 1445,
      "bo": 1446,
      "bl": 1447,
      "aw": 1448,
      "ction": 1449,
      "wor": 1450,
      "comp": 1451,
      "ev": 1452,
      "ach": 1453,
      "age": 1454,
      "ke": 1455,
      "att": 1456,
      "first": 1457,
      "land": 1458,
      "port": 1459,
      "ign": 1460,
      "ition": 1461,
      "form": 1462,
      "their": 1463,
      "si": 1464,
      "ical": 1465,
      "low": 1466,
      "sc": 1467,
      "lo": 1468,
      "ial": 1469,
      "ser": 1470,
      "tim": 1471,
      "ater": 1472,
      "po": 1473,
      "ll": 1474,
      "also": 1475,
      "He": 1476,
      "who": 1477,
      "br": 1478,
      "part": 1479,
      "int": 1480,
      "ure": 1481,
      "18": 1482,
      "has": 1483,
      "other": 1484,
      "rec": 1485,
      "have": 1486,
      "play": 1487,
      "ome": 1488,
      "ans": 1489,
      "pt": 1490,
      "ust": 1491,
      "cont": 1492,
      "off": 1493,
      "ree": 1494,
      "ok": 1495,
      ".@": 1496,
      "@.@": 1497,
      "two": 1498,
      "ile": 1499,
      "ence": 1500,
      "pres": 1501,
      "uring": 1502,
      "been": 1503,
      "me": 1504,
      "ice": 1505,
      "ance": 1506,
      "we": 1507,
      "mer": 1508,
      ",@": 1509,
      "@,@": 1510,
      "dis": 1511,
      "201": 1512,
      "pos": 1513,
      "Th": 1514,
      "It": 1515,
      "this": 1516,
      "ory": 1517,
      "year": 1518,
      "after": 1519,
      "ren": 1520,
      "ph": 1521,
      "ult": 1522,
      "cre": 1523,
      "des": 1524,
      "ell": 1525,
      "ace": 1526,
      "ved": 1527,
      "fin": 1528,
      "ark": 1529,
      "ade": 1530,
      "they": 1531,
      "An": 1532,
      "able": 1533,
      "mon": 1534,
      "co": 1535,
      "sp": 1536,
      "incl": 1537,
      "ue": 1538,
      "ite": 1539,
      "ail": 1540,
      "Un": 1541,
      "ever": 1542,
      "work": 1543,
      "ang": 1544,
      "sion": 1545,
      "air": 1546,
      "ff": 1547,
      "time": 1548,
      "inter": 1549,
      "urn": 1550,
      "would": 1551,
      "ations": 1552,
      "ship": 1553,
      "pre": 1554,
      "og": 1555,
      "ced": 1556,
      "into": 1557,
      "cent": 1558,
      "him": 1559,
      "cr": 1560,
      "iz": 1561,
      "ick": 1562,
      "vel": 1563,
      "spe": 1564,
      "she": 1565,
      "mber": 1566,
      "ict": 1567,
      "ates": 1568,
      "no": 1569,
      "ie": 1570,
      "ased": 1571,
      "more": 1572,
      "ited": 1573,
      "ilm": 1574,
      "min": 1575,
      "old": 1576,
      "way": 1577,
      "ty": 1578,
      "ire": 1579,
      "most": 1580,
      "ces": 1581,
      "new": 1582,
      "amp": 1583,
      "son": 1584,
      "fore": 1585,
      "main": 1586,
      "Ar": 1587,
      "bec": 1588,
      "Al": 1589,
      "ry": 1590,
      "any": 1591,
      "ten": 1592,
      "ase": 1593,
      "ret": 1594,
      "used": 1595,
      "ason": 1596,
      "fl": 1597,
      "ann": 1598,
      "ood": 1599,
      "includ": 1600,
      "cond": 1601,
      "cted": 1602,
      "cess": 1603,
      "ings": 1604,
      "ran": 1605,
      "ind": 1606,
      "vis": 1607,
      "ors": 1608,
      "red": 1609,
      "when": 1610,
      "film": 1611,
      "day": 1612,
      "les": 1613,
      "ted": 1614,
      "ered": 1615,
      "rough": 1616,
      "ath": 1617,
      "ild": 1618,
      "comm": 1619,
      "ward": 1620,
      "ton": 1621,
      "col": 1622,
      "ake": 1623,
      "ican": 1624,
      "Mar": 1625,
      "Au": 1626,
      "ob": 1627,
      "bu": 1628,
      "though": 1629,
      "gan": 1630,
      "ts": 1631,
      "een": 1632,
      "ions": 1633,
      "reg": 1634,
      "sy": 1635,
      "ens": 1636,
      "Wh": 1637,
      "during": 1638,
      "ra": 1639,
      "than": 1640,
      "Re": 1641,
      "On": 1642,
      "De": 1643,
      "again": 1644,
      "game": 1645,
      "ose": 1646,
      "so": 1647,
      "under": 1648,
      "ble": 1649,
      "ubl": 1650,
      "gen": 1651,
      "nor": 1652,
      "char": 1653,
      "produ": 1654,
      "199": 1655,
      "only": 1656,
      "ck": 1657,
      "ollow": 1658,
      "them": 1659,
      "about": 1660,
      "row": 1661,
      "can": 1662,
      "ents": 1663,
      "while": 1664,
      "New": 1665,
      "ide": 1666,
      "ational": 1667,
      "some": 1668,
      "song": 1669,
      "En": 1670,
      "rele": 1671,
      "later": 1672,
      "oy": 1673,
      "led": 1674,
      "tween": 1675,
      "outh": 1676,
      "between": 1677,
      "ele": 1678,
      "sing": 1679,
      "three": 1680,
      "10": 1681,
      "ating": 1682,
      "Af": 1683,
      "where": 1684,
      "through": 1685,
      "num": 1686,
      "ron": 1687,
      "coun": 1688,
      "aid": 1689,
      "As": 1690,
      "season": 1691,
      "ics": 1692,
      "view": 1693,
      "ful": 1694,
      "lar": 1695,
      "cons": 1696,
      "Amer": 1697,
      "my": 1698,
      "tain": 1699,
      "ern": 1700,
      "writ": 1701,
      "stru": 1702,
      "sub": 1703,
      "ied": 1704,
      "then": 1705,
      "rel": 1706,
      "iver": 1707,
      "kn": 1708,
      "000": 1709,
      "ular": 1710,
      "dr": 1711,
      "Le": 1712,
      "ters": 1713,
      "Jo": 1714,
      "second": 1715,
      "high": 1716,
      "sel": 1717,
      "made": 1718,
      "med": 1719,
      "set": 1720,
      "Com": 1721,
      "ef": 1722,
      "ames": 1723,
      "bum": 1724,
      "record": 1725,
      "four": 1726,
      "follow": 1727,
      "do": 1728,
      "spec": 1729,
      "go": 1730,
      "such": 1731,
      "loc": 1732,
      "17": 1733,
      "sur": 1734,
      "ished": 1735,
      "cap": 1736,
      "arri": 1737,
      "eng": 1738,
      "ub": 1739,
      "before": 1740,
      "atch": 1741,
      "No": 1742,
      "back": 1743,
      "there": 1744,
      "cur": 1745,
      "team": 1746,
      "well": 1747,
      "mus": 1748,
      "15": 1749,
      "years": 1750,
      "iel": 1751,
      "appe": 1752,
      "cho": 1753,
      "ven": 1754,
      "ma": 1755,
      "add": 1756,
      "inn": 1757,
      "This": 1758,
      "ident": 1759,
      "sup": 1760,
      "ks": 1761,
      "pol": 1762,
      "album": 1763,
      "Con": 1764,
      "ific": 1765,
      "publ": 1766,
      "ros": 1767,
      "reat": 1768,
      "owever": 1769,
      "ily": 1770,
      "call": 1771,
      "..": 1772,
      "je": 1773,
      "fer": 1774,
      "tem": 1775,
      "Nor": 1776,
      "Sh": 1777,
      "gu": 1778,
      "ual": 1779,
      "ative": 1780,
      "many": 1781,
      "being": 1782,
      "point": 1783,
      "unt": 1784,
      "epis": 1785,
      "ale": 1786,
      "uary": 1787,
      "oup": 1788,
      "ond": 1789,
      "ince": 1790,
      "ode": 1791,
      "velop": 1792,
      "against": 1793,
      "At": 1794,
      "number": 1795,
      "ury": 1796,
      "use": 1797,
      "ped": 1798,
      "side": 1799,
      "lead": 1800,
      "ins": 1801,
      "show": 1802,
      "charac": 1803,
      "After": 1804,
      "ft": 1805,
      "sever": 1806,
      "Be": 1807,
      "mem": 1808,
      "16": 1809,
      "ause": 1810,
      "war": 1811,
      "par": 1812,
      "appear": 1813,
      "long": 1814,
      "found": 1815,
      "rece": 1816,
      "ious": 1817,
      "became": 1818,
      "12": 1819,
      "Brit": 1820,
      "ash": 1821,
      "including": 1822,
      "like": 1823,
      "United": 1824,
      "serv": 1825,
      "io": 1826,
      "both": 1827,
      "hn": 1828,
      "ese": 1829,
      "orn": 1830,
      "series": 1831,
      "Se": 1832,
      "198": 1833,
      "feat": 1834,
      "ise": 1835,
      "cy": 1836,
      "ost": 1837,
      "line": 1838,
      "cri": 1839,
      "mi": 1840,
      "igin": 1841,
      "194": 1842,
      "did": 1843,
      "ended": 1844,
      "She": 1845,
      "eral": 1846,
      "develop": 1847,
      "rop": 1848,
      "tri": 1849,
      "mill": 1850,
      "contin": 1851,
      "ments": 1852,
      "dire": 1853,
      "ley": 1854,
      "cer": 1855,
      "ities": 1856,
      "ures": 1857,
      "down": 1858,
      "ock": 1859,
      "Eng": 1860,
      "suc": 1861,
      "pop": 1862,
      "30": 1863,
      "diff": 1864,
      "head": 1865,
      "John": 1866,
      "dec": 1867,
      "road": 1868,
      "run": 1869,
      "pass": 1870,
      "az": 1871,
      "episode": 1872,
      "ird": 1873,
      "uch": 1874,
      "War": 1875,
      "said": 1876,
      "leg": 1877,
      "west": 1878,
      "ouse": 1879,
      "Wor": 1880,
      "could": 1881,
      "por": 1882,
      "ress": 1883,
      "erson": 1884,
      "several": 1885,
      "mis": 1886,
      "American": 1887,
      "known": 1888,
      "peri": 1889,
      "Ro": 1890,
      "origin": 1891,
      "vid": 1892,
      "vol": 1893,
      "lin": 1894,
      "ield": 1895,
      "197": 1896,
      "che": 1897,
      "comple": 1898,
      "arch": 1899,
      "rest": 1900,
      "ised": 1901,
      "196": 1902,
      "14": 1903,
      "II": 1904,
      "cord": 1905,
      "For": 1906,
      "ually": 1907,
      "sign": 1908,
      "self": 1909,
      "music": 1910,
      "Gr": 1911,
      "stem": 1912,
      "car": 1913,
      "remain": 1914,
      "return": 1915,
      "bed": 1916,
      "cept": 1917,
      "began": 1918,
      "oper": 1919,
      "design": 1920,
      "Ger": 1921,
      "try": 1922,
      "Br": 1923,
      "ste": 1924,
      "ting": 1925,
      "ople": 1926,
      "chool": 1927,
      "sm": 1928,
      "state": 1929,
      "early": 1930,
      "13": 1931,
      "aking": 1932,
      "hel": 1933,
      "ah": 1934,
      "cover": 1935,
      "released": 1936,
      "near": 1937,
      "dist": 1938,
      "ball": 1939,
      "ived": 1940,
      "descri": 1941,
      "Col": 1942,
      "until": 1943,
      "US": 1944,
      "called": 1945,
      "ject": 1946,
      "une": 1947,
      "success": 1948,
      "open": 1949,
      "present": 1950,
      "plac": 1951,
      "trans": 1952,
      "men": 1953,
      "Sc": 1954,
      "Tr": 1955,
      "fam": 1956,
      "arr": 1957,
      "hist": 1958,
      "ross": 1959,
      "olog": 1960,
      "May": 1961,
      "king": 1962,
      "hy": 1963,
      "offic": 1964,
      "get": 1965,
      "band": 1966,
      "ially": 1967,
      "crit": 1968,
      "overn": 1969,
      "gg": 1970,
      "val": 1971,
      "group": 1972,
      "gust": 1973,
      "less": 1974,
      "ists": 1975,
      "may": 1976,
      "along": 1977,
      "vent": 1978,
      "ves": 1979,
      "ms": 1980,
      "50": 1981,
      "nam": 1982,
      "bers": 1983,
      "million": 1984,
      "ower": 1985,
      "Cl": 1986,
      "mil": 1987,
      "British": 1988,
      "tow": 1989,
      "jor": 1990,
      "xt": 1991,
      "ving": 1992,
      "Sep": 1993,
      "sim": 1994,
      "bre": 1995,
      "cast": 1996,
      "these": 1997,
      "met": 1998,
      "come": 1999,
      "enn": 2000,
      "fect": 2001,
      "ather": 2002,
      "ric": 2003,
      "ized": 2004,
      "attack": 2005,
      "oci": 2006,
      "cut": 2007,
      "tember": 2008,
      "cle": 2009,
      "Wil": 2010,
      "national": 2011,
      "stral": 2012,
      "Sp": 2013,
      "now": 2014,
      "September": 2015,
      "August": 2016,
      "World": 2017,
      "ured": 2018,
      "States": 2019,
      "requ": 2020,
      "stor": 2021,
      "let": 2022,
      "took": 2023,
      "batt": 2024,
      "continu": 2025,
      "large": 2026,
      "same": 2027,
      "people": 2028,
      "Ju": 2029,
      "dep": 2030,
      "character": 2031,
      "oot": 2032,
      "und": 2033,
      "because": 2034,
      "vide": 2035,
      "Car": 2036,
      "ib": 2037,
      "light": 2038,
      "var": 2039,
      "grap": 2040,
      "position": 2041,
      "read": 2042,
      "11": 2043,
      "ism": 2044,
      "result": 2045,
      "around": 2046,
      "ired": 2047,
      "Oc": 2048,
      "start": 2049,
      "Is": 2050,
      "km": 2051,
      "aving": 2052,
      "class": 2053,
      "ctor": 2054,
      "wee": 2055,
      "ivers": 2056,
      "Bl": 2057,
      "Jan": 2058,
      "sk": 2059,
      "Ad": 2060,
      "cour": 2061,
      "aim": 2062,
      "Austral": 2063,
      "pon": 2064,
      "formed": 2065,
      "support": 2066,
      "oth": 2067,
      "vision": 2068,
      "mark": 2069,
      "la": 2070,
      "build": 2071,
      "ca": 2072,
      "following": 2073,
      "inc": 2074,
      "north": 2075,
      "life": 2076,
      "allow": 2077,
      "ants": 2078,
      "six": 2079,
      "system": 2080,
      "tal": 2081,
      "However": 2082,
      "ork": 2083,
      "ison": 2084,
      "track": 2085,
      "Octo": 2086,
      "Pl": 2087,
      "prom": 2088,
      "consid": 2089,
      "aft": 2090,
      "each": 2091,
      "received": 2092,
      "urch": 2093,
      "October": 2094,
      "rist": 2095,
      "will": 2096,
      "ime": 2097,
      "ained": 2098,
      "ium": 2099,
      "Pr": 2100,
      "West": 2101,
      "place": 2102,
      "ility": 2103,
      "very": 2104,
      "ys": 2105,
      "govern": 2106,
      "ax": 2107,
      "sol": 2108,
      "thern": 2109,
      "liam": 2110,
      "five": 2111,
      "ling": 2112,
      "just": 2113,
      "ru": 2114,
      "area": 2115,
      "stand": 2116,
      "right": 2117,
      "century": 2118,
      "ars": 2119,
      "wards": 2120,
      "appro": 2121,
      "They": 2122,
      "def": 2123,
      "partic": 2124,
      "match": 2125,
      "ately": 2126,
      "report": 2127,
      "city": 2128,
      "North": 2129,
      "By": 2130,
      "York": 2131,
      "rote": 2132,
      "ple": 2133,
      "public": 2134,
      "world": 2135,
      "June": 2136,
      "contro": 2137,
      "book": 2138,
      "giv": 2139,
      "tle": 2140,
      "top": 2141,
      "small": 2142,
      "major": 2143,
      "ked": 2144,
      "cording": 2145,
      "King": 2146,
      "jo": 2147,
      "ground": 2148,
      "July": 2149,
      "field": 2150,
      "ina": 2151,
      "Nove": 2152,
      "last": 2153,
      "Can": 2154,
      "November": 2155,
      "played": 2156,
      "organ": 2157,
      "what": 2158,
      "ger": 2159,
      "turn": 2160,
      "Man": 2161,
      "ored": 2162,
      "atter": 2163,
      "25": 2164,
      "tit": 2165,
      "east": 2166,
      "person": 2167,
      "since": 2168,
      "town": 2169,
      "single": 2170,
      "lish": 2171,
      "ional": 2172,
      "Apr": 2173,
      "sequ": 2174,
      "March": 2175,
      "April": 2176,
      "reach": 2177,
      "gun": 2178,
      "Fe": 2179,
      "app": 2180,
      "aged": 2181,
      "even": 2182,
      "Ac": 2183,
      "arm": 2184,
      "care": 2185,
      "ude": 2186,
      "ural": 2187,
      "name": 2188,
      "pri": 2189,
      "won": 2190,
      "ster": 2191,
      "Eu": 2192,
      "Ge": 2193,
      "differ": 2194,
      "power": 2195,
      "Mc": 2196,
      "Co": 2197,
      "dom": 2198,
      "hal": 2199,
      "vious": 2200,
      "0s": 2201,
      "ient": 2202,
      "Coun": 2203,
      "lit": 2204,
      "bro": 2205,
      "idge": 2206,
      "ague": 2207,
      "Indi": 2208,
      "final": 2209,
      "ined": 2210,
      "test": 2211,
      "left": 2212,
      "ref": 2213,
      "due": 2214,
      "South": 2215,
      "south": 2216,
      "event": 2217,
      "During": 2218,
      "version": 2219,
      "gre": 2220,
      "udi": 2221,
      "school": 2222,
      "ages": 2223,
      "list": 2224,
      "Dece": 2225,
      "ica": 2226,
      "ank": 2227,
      "December": 2228,
      "third": 2229,
      "German": 2230,
      "avy": 2231,
      "incre": 2232,
      "ilt": 2233,
      "water": 2234,
      "Me": 2235,
      "aff": 2236,
      "month": 2237,
      "Ph": 2238,
      "Ed": 2239,
      "moved": 2240,
      "ision": 2241,
      "Ste": 2242,
      "much": 2243,
      "ier": 2244,
      "child": 2245,
      "another": 2246,
      "expl": 2247,
      "ets": 2248,
      "named": 2249,
      "January": 2250,
      "included": 2251,
      "195": 2252,
      "based": 2253,
      "We": 2254,
      "issu": 2255,
      "wrote": 2256,
      "claim": 2257,
      "camp": 2258,
      "government": 2259,
      "193": 2260,
      "ships": 2261,
      "All": 2262,
      "kill": 2263,
      "ales": 2264,
      "ians": 2265,
      "When": 2266,
      "ons": 2267,
      "apan": 2268,
      "home": 2269,
      "ls": 2270,
      "chan": 2271,
      "short": 2272,
      "story": 2273,
      "Or": 2274,
      "Pe": 2275,
      "death": 2276,
      "ane": 2277,
      "bert": 2278,
      "ute": 2279,
      "order": 2280,
      "24": 2281,
      "ought": 2282,
      "ature": 2283,
      "Japan": 2284,
      "ently": 2285,
      "Gu": 2286,
      "roy": 2287,
      "ner": 2288,
      "ext": 2289,
      "ically": 2290,
      "ody": 2291,
      "make": 2292,
      "press": 2293,
      "using": 2294,
      "tempt": 2295,
      "family": 2296,
      "review": 2297,
      "Pro": 2298,
      "ital": 2299,
      "species": 2300,
      "pect": 2301,
      "ution": 2302,
      "oss": 2303,
      "flu": 2304,
      "hand": 2305,
      "house": 2306,
      "described": 2307,
      "ement": 2308,
      "previous": 2309,
      "ik": 2310,
      "fact": 2311,
      "rench": 2312,
      "...": 2313,
      "ney": 2314,
      "dam": 2315,
      "dest": 2316,
      "rown": 2317,
      "ards": 2318,
      "forman": 2319,
      "late": 2320,
      "Euro": 2321,
      "beli": 2322,
      "thing": 2323,
      "cas": 2324,
      "real": 2325,
      "urther": 2326,
      "built": 2327,
      "gener": 2328,
      "ilar": 2329,
      "former": 2330,
      "ified": 2331,
      "Bo": 2332,
      "best": 2333,
      "ene": 2334,
      "attempt": 2335,
      "oute": 2336,
      "placed": 2337,
      "tak": 2338,
      "games": 2339,
      "ler": 2340,
      "mp": 2341,
      "tract": 2342,
      "polit": 2343,
      "ness": 2344,
      "held": 2345,
      "command": 2346,
      "stud": 2347,
      "colle": 2348,
      "still": 2349,
      "put": 2350,
      "ety": 2351,
      "original": 2352,
      "stit": 2353,
      "His": 2354,
      "those": 2355,
      "ared": 2356,
      "addition": 2357,
      "constru": 2358,
      "Mon": 2359,
      "gram": 2360,
      "bruary": 2361,
      "February": 2362,
      "ford": 2363,
      "lim": 2364,
      "augh": 2365,
      "next": 2366,
      "vo": 2367,
      "effect": 2368,
      "anc": 2369,
      "Christ": 2370,
      "There": 2371,
      "fall": 2372,
      "performan": 2373,
      "fel": 2374,
      "mid": 2375,
      "fri": 2376,
      "gy": 2377,
      "den": 2378,
      "Par": 2379,
      "members": 2380,
      "rican": 2381,
      "sent": 2382,
      "21": 2383,
      "ctions": 2384,
      "ences": 2385,
      "ator": 2386,
      "National": 2387,
      "mar": 2388,
      "100": 2389,
      "Europe": 2390,
      "Gen": 2391,
      "iversity": 2392,
      "days": 2393,
      "see": 2394,
      "period": 2395,
      "adv": 2396,
      "within": 2397,
      "mit": 2398,
      "ats": 2399,
      "Li": 2400,
      "French": 2401,
      "ham": 2402,
      "22": 2403,
      "release": 2404,
      "role": 2405,
      "although": 2406,
      "move": 2407,
      "init": 2408,
      "thor": 2409,
      "video": 2410,
      "wind": 2411,
      "ush": 2412,
      "say": 2413,
      "half": 2414,
      "2010": 2415,
      "hip": 2416,
      "ines": 2417,
      "bur": 2418,
      "estab": 2419,
      "came": 2420,
      "ze": 2421,
      "cor": 2422,
      "William": 2423,
      "ropical": 2424,
      "continued": 2425,
      "Ser": 2426,
      "wom": 2427,
      "round": 2428,
      "23": 2429,
      "Her": 2430,
      "law": 2431,
      "ps": 2432,
      "win": 2433,
      "And": 2434,
      "aining": 2435,
      "craft": 2436,
      "na": 2437,
      "uc": 2438,
      "ains": 2439,
      "ribut": 2440,
      "ning": 2441,
      "ulation": 2442,
      "hum": 2443,
      "posed": 2444,
      "sou": 2445,
      "uss": 2446,
      "however": 2447,
      "ris": 2448,
      "ending": 2449,
      "ones": 2450,
      "27": 2451,
      "itary": 2452,
      "ched": 2453,
      "2008": 2454,
      "inning": 2455,
      "fac": 2456,
      "often": 2457,
      "2009": 2458,
      "you": 2459,
      "Geor": 2460,
      "few": 2461,
      "ral": 2462,
      "imes": 2463,
      "equ": 2464,
      "ister": 2465,
      "ampion": 2466,
      "ali": 2467,
      "take": 2468,
      "rad": 2469,
      "stri": 2470,
      "mag": 2471,
      "friend": 2472,
      "28": 2473,
      "local": 2474,
      "player": 2475,
      "similar": 2476,
      "2011": 2477,
      "sen": 2478,
      "Fran": 2479,
      "among": 2480,
      "Ear": 2481,
      "Air": 2482,
      "production": 2483,
      "beg": 2484,
      "Mich": 2485,
      "pite": 2486,
      "force": 2487,
      "Des": 2488,
      "went": 2489,
      "different": 2490,
      "wood": 2491,
      "ior": 2492,
      "ix": 2493,
      "Inter": 2494,
      "Bar": 2495,
      "chang": 2496,
      "possi": 2497,
      "mission": 2498,
      "ony": 2499,
      "England": 2500,
      "26": 2501,
      "ove": 2502,
      "Char": 2503,
      "atic": 2504,
      "storm": 2505,
      "40": 2506,
      "ery": 2507,
      "further": 2508,
      "strong": 2509,
      "One": 2510,
      "week": 2511,
      "night": 2512,
      "considered": 2513,
      "company": 2514,
      "level": 2515,
      "Mus": 2516,
      "sty": 2517,
      "served": 2518,
      "Dav": 2519,
      "ides": 2520,
      "2007": 2521,
      "post": 2522,
      "ided": 2523,
      "ices": 2524,
      "career": 2525,
      "aver": 2526,
      "Har": 2527,
      "fire": 2528,
      "provid": 2529,
      "having": 2530,
      "City": 2531,
      "ively": 2532,
      "East": 2533,
      "ged": 2534,
      "fort": 2535,
      "Park": 2536,
      "action": 2537,
      "exp": 2538,
      "commun": 2539,
      "trad": 2540,
      "English": 2541,
      "tele": 2542,
      "uck": 2543,
      "bas": 2544,
      "fron": 2545,
      "every": 2546,
      "enter": 2547,
      "club": 2548,
      "without": 2549,
      "history": 2550,
      "Although": 2551,
      "refer": 2552,
      "hold": 2553,
      "ives": 2554,
      "studi": 2555,
      "written": 2556,
      "wide": 2557,
      "2012": 2558,
      "become": 2559,
      "Scot": 2560,
      "lands": 2561,
      "stead": 2562,
      "ops": 2563,
      "board": 2564,
      "Fr": 2565,
      "respon": 2566,
      "Lond": 2567,
      "influ": 2568,
      "ink": 2569,
      "reet": 2570,
      "London": 2571,
      "graph": 2572,
      "sound": 2573,
      "Ang": 2574,
      "foot": 2575,
      "ggest": 2576,
      "With": 2577,
      "invol": 2578,
      "River": 2579,
      "suggest": 2580,
      "Batt": 2581,
      "ung": 2582,
      "29": 2583,
      "190": 2584,
      "So": 2585,
      "given": 2586,
      "announ": 2587,
      "ington": 2588,
      "que": 2589,
      "prof": 2590,
      "divid": 2591,
      "tro": 2592,
      "oung": 2593,
      "Ex": 2594,
      "bus": 2595,
      "iss": 2596,
      "mand": 2597,
      "want": 2598,
      "key": 2599,
      "reen": 2600,
      "Mo": 2601,
      "change": 2602,
      "building": 2603,
      "comb": 2604,
      "Canad": 2605,
      "High": 2606,
      "imp": 2607,
      "father": 2608,
      "gave": 2609,
      "successful": 2610,
      "Te": 2611,
      "anim": 2612,
      "common": 2613,
      "published": 2614,
      "Ne": 2615,
      "University": 2616,
      "To": 2617,
      "close": 2618,
      "import": 2619,
      "stated": 2620,
      "seven": 2621,
      "cop": 2622,
      "Sy": 2623,
      "rent": 2624,
      "sure": 2625,
      "never": 2626,
      "While": 2627,
      "good": 2628,
      "dri": 2629,
      "ailed": 2630,
      "returned": 2631,
      "ai": 2632,
      "bor": 2633,
      "produced": 2634,
      "total": 2635,
      "ug": 2636,
      "Pol": 2637,
      "beh": 2638,
      "iment": 2639,
      "ae": 2640,
      "country": 2641,
      "face": 2642,
      "sw": 2643,
      "omin": 2644,
      "prote": 2645,
      "Fl": 2646,
      "eved": 2647,
      "hour": 2648,
      "fr": 2649,
      "find": 2650,
      "away": 2651,
      "popular": 2652,
      "quad": 2653,
      "del": 2654,
      "sit": 2655,
      "tour": 2656,
      "reported": 2657,
      "aren": 2658,
      "Div": 2659,
      "omet": 2660,
      "ably": 2661,
      "2006": 2662,
      "lost": 2663,
      "program": 2664,
      "compos": 2665,
      "great": 2666,
      "aign": 2667,
      "particular": 2668,
      "ways": 2669,
      "draw": 2670,
      "vest": 2671,
      "making": 2672,
      "Cor": 2673,
      "include": 2674,
      "author": 2675,
      "According": 2676,
      "decl": 2677,
      "interest": 2678,
      "recorded": 2679,
      "chn": 2680,
      "how": 2681,
      "struct": 2682,
      "indu": 2683,
      "vers": 2684,
      "Dr": 2685,
      "forces": 2686,
      "arried": 2687,
      "need": 2688,
      "vict": 2689,
      "direct": 2690,
      "fle": 2691,
      "urrican": 2692,
      "plan": 2693,
      "ology": 2694,
      "body": 2695,
      "itions": 2696,
      "bar": 2697,
      "site": 2698,
      "aur": 2699,
      "should": 2700,
      "ama": 2701,
      "ploy": 2702,
      "service": 2703,
      "quar": 2704,
      "performance": 2705,
      "suff": 2706,
      "died": 2707,
      "moder": 2708,
      "Phil": 2709,
      "teen": 2710,
      "ument": 2711,
      "times": 2712,
      "These": 2713,
      "soci": 2714,
      "capt": 2715,
      "ox": 2716,
      "coming": 2717,
      "grad": 2718,
      "aircraft": 2719,
      "Roy": 2720,
      "himself": 2721,
      "2013": 2722,
      "pen": 2723,
      "military": 2724,
      "rock": 2725,
      "intro": 2726,
      "Australia": 2727,
      "depend": 2728,
      "flo": 2729,
      "battle": 2730,
      "ned": 2731,
      "sum": 2732,
      "Jack": 2733,
      "tell": 2734,
      "rew": 2735,
      "agre": 2736,
      "net": 2737,
      "room": 2738,
      "fan": 2739,
      "songs": 2740,
      "fun": 2741,
      "Pres": 2742,
      "member": 2743,
      "pur": 2744,
      "Am": 2745,
      "iness": 2746,
      "critic": 2747,
      "development": 2748,
      "ana": 2749,
      "elect": 2750,
      "General": 2751,
      "State": 2752,
      "Rep": 2753,
      "search": 2754,
      "xim": 2755,
      "aul": 2756,
      "front": 2757,
      "represent": 2758,
      "alth": 2759,
      "aster": 2760,
      "Min": 2761,
      "ened": 2762,
      "look": 2763,
      "189": 2764,
      "BC": 2765,
      "itive": 2766,
      "itch": 2767,
      "ael": 2768,
      "James": 2769,
      "histor": 2770,
      "developed": 2771,
      "akes": 2772,
      "acy": 2773,
      "ges": 2774,
      "istr": 2775,
      "medi": 2776,
      "control": 2777,
      "introdu": 2778,
      "destroy": 2779,
      "children": 2780,
      "gl": 2781,
      "Sw": 2782,
      "sl": 2783,
      "remained": 2784,
      "nal": 2785,
      "chart": 2786,
      "star": 2787,
      "Rom": 2788,
      "characters": 2789,
      "Army": 2790,
      "range": 2791,
      "fav": 2792,
      "ption": 2793,
      "vir": 2794,
      "title": 2795,
      "months": 2796,
      "60": 2797,
      "clear": 2798,
      "Sm": 2799,
      "ither": 2800,
      "mm": 2801,
      "campaign": 2802,
      "occur": 2803,
      "ues": 2804,
      "urricane": 2805,
      "League": 2806,
      "ey": 2807,
      "ising": 2808,
      "cult": 2809,
      "taken": 2810,
      "ense": 2811,
      "gether": 2812,
      "eight": 2813,
      "rap": 2814,
      "van": 2815,
      "ream": 2816,
      "compet": 2817,
      "felt": 2818,
      "ban": 2819,
      "cir": 2820,
      "tropical": 2821,
      "ability": 2822,
      "across": 2823,
      "signific": 2824,
      "writing": 2825,
      "seen": 2826,
      "project": 2827,
      "disc": 2828,
      "omb": 2829,
      "ering": 2830,
      "Su": 2831,
      "ots": 2832,
      "station": 2833,
      "bridge": 2834,
      "gest": 2835,
      "too": 2836,
      "Cap": 2837,
      "appeared": 2838,
      "announced": 2839,
      "America": 2840,
      "pra": 2841,
      "noted": 2842,
      "pec": 2843,
      "tar": 2844,
      "Division": 2845,
      "George": 2846,
      "alter": 2847,
      "reached": 2848,
      "Tw": 2849,
      "appoint": 2850,
      "experi": 2851,
      "cil": 2852,
      "created": 2853,
      "County": 2854,
      "activ": 2855,
      "areas": 2856,
      "Hen": 2857,
      "television": 2858,
      "works": 2859,
      "uses": 2860,
      "Japanese": 2861,
      "2005": 2862,
      "fight": 2863,
      "gin": 2864,
      "Road": 2865,
      "ille": 2866,
      "saw": 2867,
      "performed": 2868,
      "prim": 2869,
      "cost": 2870,
      "various": 2871,
      "political": 2872,
      "lect": 2873,
      "complete": 2874,
      "followed": 2875,
      "Street": 2876,
      "break": 2877,
      "full": 2878,
      "inv": 2879,
      "hor": 2880,
      "iting": 2881,
      "Per": 2882,
      "players": 2883,
      "race": 2884,
      "trave": 2885,
      "style": 2886,
      "ality": 2887,
      "2014": 2888,
      "covered": 2889,
      "arded": 2890,
      "ago": 2891,
      "Ma": 2892,
      "process": 2893,
      "black": 2894,
      "abor": 2895,
      "mph": 2896,
      "mix": 2897,
      "mot": 2898,
      "mb": 2899,
      "antic": 2900,
      "killed": 2901,
      "points": 2902,
      "help": 2903,
      "ief": 2904,
      "wall": 2905,
      "Mad": 2906,
      "ances": 2907,
      "ible": 2908,
      "lished": 2909,
      "throughout": 2910,
      "hit": 2911,
      "live": 2912,
      "sess": 2913,
      "lines": 2914,
      "together": 2915,
      "debut": 2916,
      "bet": 2917,
      "formation": 2918,
      "techn": 2919,
      "little": 2920,
      "sex": 2921,
      "har": 2922,
      "stat": 2923,
      "established": 2924,
      "significant": 2925,
      "fem": 2926,
      "non": 2927,
      "meet": 2928,
      "broad": 2929,
      "ization": 2930,
      "coast": 2931,
      "Thom": 2932,
      "thought": 2933,
      "construction": 2934,
      "icult": 2935,
      "bel": 2936,
      "oto": 2937,
      "miles": 2938,
      "pair": 2939,
      "earli": 2940,
      "does": 2941,
      "Reg": 2942,
      "impro": 2943,
      "enced": 2944,
      "David": 2945,
      "aval": 2946,
      "Michael": 2947,
      "tra": 2948,
      "entire": 2949,
      "Australian": 2950,
      "born": 2951,
      "rain": 2952,
      "stage": 2953,
      "pain": 2954,
      "acc": 2955,
      "far": 2956,
      "ission": 2957,
      "young": 2958,
      "voc": 2959,
      "got": 2960,
      "odes": 2961,
      "relation": 2962,
      "Part": 2963,
      "special": 2964,
      "Rich": 2965,
      "El": 2966,
      "route": 2967,
      "conom": 2968,
      "women": 2969,
      "decided": 2970,
      "ators": 2971,
      "conne": 2972,
      "Bill": 2973,
      "You": 2974,
      "caused": 2975,
      "started": 2976,
      "case": 2977,
      "ivil": 2978,
      "playing": 2979,
      "general": 2980,
      "features": 2981,
      "Med": 2982,
      "San": 2983,
      "grow": 2984,
      "white": 2985,
      "eventually": 2986,
      "scri": 2987,
      "sell": 2988,
      "ho": 2989,
      "once": 2990,
      "House": 2991,
      "ample": 2992,
      "manag": 2993,
      "aves": 2994,
      "tee": 2995,
      "isted": 2996,
      "crew": 2997,
      "ull": 2998,
      "sold": 2999,
      "host": 3000,
      "Fin": 3001,
      "feet": 3002,
      "Royal": 3003,
      "Qu": 3004,
      "opened": 3005,
      "added": 3006,
      "ald": 3007,
      "stant": 3008,
      "modern": 3009,
      "located": 3010,
      "termin": 3011,
      "idence": 3012,
      "188": 3013,
      "Hist": 3014,
      "pat": 3015,
      "quadron": 3016,
      "base": 3017,
      "ampionship": 3018,
      "ife": 3019,
      "reek": 3020,
      "Some": 3021,
      "instead": 3022,
      "ring": 3023,
      "Ital": 3024,
      "itar": 3025,
      "ensive": 3026,
      "vari": 3027,
      "inj": 3028,
      "important": 3029,
      "peak": 3030,
      "clos": 3031,
      "theast": 3032,
      "section": 3033,
      "Music": 3034,
      "cret": 3035,
      "utes": 3036,
      "Black": 3037,
      "word": 3038,
      "Don": 3039,
      "completed": 3040,
      "possible": 3041,
      "hon": 3042,
      "ocial": 3043,
      "Comp": 3044,
      "moun": 3045,
      "ends": 3046,
      "worked": 3047,
      "ov": 3048,
      "cross": 3049,
      "ination": 3050,
      "cause": 3051,
      "My": 3052,
      "current": 3053,
      "others": 3054,
      "population": 3055,
      "oney": 3056,
      "free": 3057,
      "2004": 3058,
      "mater": 3059,
      "audi": 3060,
      "ying": 3061,
      "pred": 3062,
      "Mal": 3063,
      "Bel": 3064,
      "fig": 3065,
      "lled": 3066,
      "leading": 3067,
      "uel": 3068,
      "Sch": 3069,
      "pie": 3070,
      "oted": 3071,
      "rather": 3072,
      "typ": 3073,
      "Po": 3074,
      "don": 3075,
      "quest": 3076,
      "Lu": 3077,
      "loss": 3078,
      "guns": 3079,
      "behind": 3080,
      "church": 3081,
      "tre": 3082,
      "Ber": 3083,
      "Robert": 3084,
      "upon": 3085,
      "ceed": 3086,
      "pract": 3087,
      "forced": 3088,
      "Hol": 3089,
      "31": 3090,
      "dle": 3091,
      "comment": 3092,
      "lack": 3093,
      "era": 3094,
      "mother": 3095,
      "invest": 3096,
      "France": 3097,
      "ask": 3098,
      "fif": 3099,
      "2015": 3100,
      "inch": 3101,
      "heavy": 3102,
      "Cent": 3103,
      "lie": 3104,
      "vill": 3105,
      "ecut": 3106,
      "party": 3107,
      "ays": 3108,
      "respect": 3109,
      "Act": 3110,
      "School": 3111,
      "subsequ": 3112,
      "novel": 3113,
      "ming": 3114,
      "proble": 3115,
      "know": 3116,
      "Russ": 3117,
      "difficult": 3118,
      "accept": 3119,
      "reve": 3120,
      "Wash": 3121,
      "Ab": 3122,
      "Angel": 3123,
      "working": 3124,
      "separ": 3125,
      "human": 3126,
      "Vi": 3127,
      "associ": 3128,
      "joined": 3129,
      "weeks": 3130,
      "term": 3131,
      "Henry": 3132,
      "yn": 3133,
      "scene": 3134,
      "70": 3135,
      "ata": 3136,
      "originally": 3137,
      "avail": 3138,
      "hard": 3139,
      "coll": 3140,
      "ogn": 3141,
      "scored": 3142,
      "almost": 3143,
      "ories": 3144,
      "pression": 3145,
      "asing": 3146,
      "NA": 3147,
      "damage": 3148,
      "allowed": 3149,
      "Ham": 3150,
      "ties": 3151,
      "Battle": 3152,
      "angu": 3153,
      "inst": 3154,
      "mass": 3155,
      "Ale": 3156,
      "fourth": 3157,
      "spir": 3158,
      "Em": 3159,
      "Best": 3160,
      "approach": 3161,
      "ready": 3162,
      "igned": 3163,
      "provided": 3164,
      "engine": 3165,
      "goal": 3166,
      "Cr": 3167,
      "ival": 3168,
      "ope": 3169,
      "ials": 3170,
      "35": 3171,
      "claimed": 3172,
      "ament": 3173,
      "80": 3174,
      "ino": 3175,
      "drop": 3176,
      "Fir": 3177,
      "wanted": 3178,
      "lower": 3179,
      "regular": 3180,
      "Vir": 3181,
      "employ": 3182,
      "Paul": 3183,
      "cup": 3184,
      "Port": 3185,
      "amb": 3186,
      "brought": 3187,
      "Red": 3188,
      "tradition": 3189,
      "nat": 3190,
      "individ": 3191,
      "Que": 3192,
      "featured": 3193,
      "500": 3194,
      "President": 3195,
      "Cour": 3196,
      "least": 3197,
      "cell": 3198,
      "wife": 3199,
      "laun": 3200,
      "gar": 3201,
      "econom": 3202,
      "hest": 3203,
      "average": 3204,
      "Mil": 3205,
      "passed": 3206,
      "soon": 3207,
      "aut": 3208,
      "business": 3209,
      "towards": 3210,
      "super": 3211,
      "TV": 3212,
      "region": 3213,
      "runs": 3214,
      "cred": 3215,
      "Washington": 3216,
      "recogn": 3217,
      "aps": 3218,
      "bal": 3219,
      "tempor": 3220,
      "critics": 3221,
      "western": 3222,
      "Play": 3223,
      "azine": 3224,
      "quick": 3225,
      "either": 3226,
      "office": 3227,
      "estim": 3228,
      "cts": 3229,
      "sour": 3230,
      "186": 3231,
      "contract": 3232,
      "profess": 3233,
      "redu": 3234,
      "leng": 3235,
      "plann": 3236,
      "Mor": 3237,
      "defe": 3238,
      "court": 3239,
      "forms": 3240,
      "example": 3241,
      "emy": 3242,
      "counter": 3243,
      "merc": 3244,
      "rail": 3245,
      "rid": 3246,
      "nomin": 3247,
      "Other": 3248,
      "Mac": 3249,
      "ula": 3250,
      "troops": 3251,
      "foc": 3252,
      "icated": 3253,
      "compan": 3254,
      "finished": 3255,
      "Res": 3256,
      "cing": 3257,
      "nia": 3258,
      "hom": 3259,
      "army": 3260,
      "dou": 3261,
      "ids": 3262,
      "Je": 3263,
      "Despite": 3264,
      "concl": 3265,
      "2003": 3266,
      "Follow": 3267,
      "rul": 3268,
      "feel": 3269,
      "ades": 3270,
      "generally": 3271,
      "shot": 3272,
      "mult": 3273,
      "asy": 3274,
      "Dan": 3275,
      "proper": 3276,
      "Game": 3277,
      "condu": 3278,
      "circ": 3279,
      "bill": 3280,
      "Gl": 3281,
      "ply": 3282,
      "whe": 3283,
      "det": 3284,
      "Colle": 3285,
      "aper": 3286,
      "events": 3287,
      "ico": 3288,
      "length": 3289,
      "believed": 3290,
      "compl": 3291,
      "fed": 3292,
      "mun": 3293,
      "Cup": 3294,
      "cert": 3295,
      "bes": 3296,
      "fre": 3297,
      "particip": 3298,
      "First": 3299,
      "Following": 3300,
      "osp": 3301,
      "keep": 3302,
      "ius": 3303,
      "parts": 3304,
      "sea": 3305,
      "aled": 3306,
      "mal": 3307,
      "Hill": 3308,
      "Mary": 3309,
      "fund": 3310,
      "anti": 3311,
      "Star": 3312,
      "scen": 3313,
      "nine": 3314,
      "victory": 3315,
      "replaced": 3316,
      "ention": 3317,
      "bound": 3318,
      "nel": 3319,
      "designed": 3320,
      "available": 3321,
      "island": 3322,
      "iction": 3323,
      "official": 3324,
      "Dep": 3325,
      "conc": 3326,
      "hours": 3327,
      "European": 3328,
      "involved": 3329,
      "sele": 3330,
      "ping": 3331,
      "president": 3332,
      "Two": 3333,
      "opening": 3334,
      "evol": 3335,
      "prison": 3336,
      "Lou": 3337,
      "itor": 3338,
      "ological": 3339,
      "stop": 3340,
      "asked": 3341,
      "ential": 3342,
      "certain": 3343,
      "turned": 3344,
      "tic": 3345,
      "comes": 3346,
      "execut": 3347,
      "exist": 3348,
      "tor": 3349,
      "director": 3350,
      "hous": 3351,
      "hab": 3352,
      "erous": 3353,
      "saying": 3354,
      "bri": 3355,
      "alk": 3356,
      "Sun": 3357,
      "threat": 3358,
      "ience": 3359,
      "ount": 3360,
      "appearance": 3361,
      "ports": 3362,
      "commit": 3363,
      "2000": 3364,
      "45": 3365,
      "75": 3366,
      "istic": 3367,
      "love": 3368,
      "ighest": 3369,
      "cycl": 3370,
      "stone": 3371,
      "park": 3372,
      "minutes": 3373,
      "largest": 3374,
      "writer": 3375,
      "Roman": 3376,
      "Mer": 3377,
      "watch": 3378,
      "highway": 3379,
      "southern": 3380,
      "Route": 3381,
      "tel": 3382,
      "Scott": 3383,
      "taking": 3384,
      "survi": 3385,
      "going": 3386,
      "ublic": 3387,
      "highest": 3388,
      "earlier": 3389,
      "From": 3390,
      "2001": 3391,
      "Mid": 3392,
      "initially": 3393,
      "ishing": 3394,
      "percent": 3395,
      "particularly": 3396,
      "training": 3397,
      "sil": 3398,
      "Atl": 3399,
      "vice": 3400,
      "mir": 3401,
      "lear": 3402,
      "nd": 3403,
      "cal": 3404,
      "ership": 3405,
      "Sing": 3406,
      "White": 3407,
      "lying": 3408,
      "educ": 3409,
      "must": 3410,
      "Church": 3411,
      "ordered": 3412,
      "assist": 3413,
      "issue": 3414,
      "Charles": 3415,
      "Kingdom": 3416,
      "Navy": 3417,
      "ize": 3418,
      "Mart": 3419,
      "Val": 3420,
      "ha": 3421,
      "graphy": 3422,
      "signed": 3423,
      "bit": 3424,
      "Do": 3425,
      "hib": 3426,
      "pot": 3427,
      "weak": 3428,
      "ateg": 3429,
      "box": 3430,
      "Thomas": 3431,
      "pond": 3432,
      "social": 3433,
      "tries": 3434,
      "central": 3435,
      "thus": 3436,
      "Off": 3437,
      "uture": 3438,
      "studio": 3439,
      "maintain": 3440,
      "praised": 3441,
      "pected": 3442,
      "Hall": 3443,
      "International": 3444,
      "speed": 3445,
      "alifor": 3446,
      "Mag": 3447,
      "ency": 3448,
      "Smith": 3449,
      "langu": 3450,
      "prec": 3451,
      "date": 3452,
      "ville": 3453,
      "reason": 3454,
      "Virgin": 3455,
      "ception": 3456,
      "pers": 3457,
      "increased": 3458,
      "gress": 3459,
      "hurricane": 3460,
      "bow": 3461,
      "northern": 3462,
      "deal": 3463,
      "Du": 3464,
      "ification": 3465,
      "units": 3466,
      "research": 3467,
      "But": 3468,
      "2002": 3469,
      "relig": 3470,
      "past": 3471,
      "90": 3472,
      "depart": 3473,
      "type": 3474,
      "stry": 3475,
      "meas": 3476,
      "Canada": 3477,
      "ape": 3478,
      "Bur": 3479,
      "Califor": 3480,
      "via": 3481,
      "commission": 3482,
      "Dis": 3483,
      "deli": 3484,
      "Bay": 3485,
      "ta": 3486,
      "pay": 3487,
      "Cam": 3488,
      "rac": 3489,
      "immedi": 3490,
      "mean": 3491,
      "daugh": 3492,
      "ayed": 3493,
      "AA": 3494,
      "Pri": 3495,
      "rian": 3496,
      "relationship": 3497,
      "agon": 3498,
      "fantry": 3499,
      "acqu": 3500,
      "ilities": 3501,
      "za": 3502,
      "Peter": 3503,
      "Richard": 3504,
      "pressed": 3505,
      "omer": 3506,
      "Pal": 3507,
      "independ": 3508,
      "usually": 3509,
      "imin": 3510,
      "bomb": 3511,
      "told": 3512,
      "better": 3513,
      "California": 3514,
      "Indian": 3515,
      "Alex": 3516,
      "Bro": 3517,
      "icket": 3518,
      "states": 3519,
      "enough": 3520,
      "winds": 3521,
      "Union": 3522,
      "Sen": 3523,
      "Mill": 3524,
      "hol": 3525,
      "Sam": 3526,
      "uk": 3527,
      "positive": 3528,
      "sal": 3529,
      "commerc": 3530,
      "ken": 3531,
      "Ho": 3532,
      "jour": 3533,
      "Court": 3534,
      "Island": 3535,
      "concern": 3536,
      "sed": 3537,
      "Brown": 3538,
      "sat": 3539,
      "spent": 3540,
      "aring": 3541,
      "according": 3542,
      "Mi": 3543,
      "ference": 3544,
      "Ben": 3545,
      "phys": 3546,
      "rup": 3547,
      "appointed": 3548,
      "above": 3549,
      "screen": 3550,
      "God": 3551,
      "films": 3552,
      "arily": 3553,
      "outside": 3554,
      "Great": 3555,
      "ume": 3556,
      "accoun": 3557,
      "football": 3558,
      "tion": 3559,
      "Award": 3560,
      "icle": 3561,
      "Cong": 3562,
      "previously": 3563,
      "ara": 3564,
      "recording": 3565,
      "script": 3566,
      "quare": 3567,
      "Sal": 3568,
      "ston": 3569,
      "responsi": 3570,
      "standing": 3571,
      "contribut": 3572,
      "Associ": 3573,
      "active": 3574,
      "Tom": 3575,
      "failed": 3576,
      "defin": 3577,
      "bird": 3578,
      "access": 3579,
      "usion": 3580,
      "Company": 3581,
      "required": 3582,
      "elements": 3583,
      "load": 3584,
      "Rock": 3585,
      "lay": 3586,
      "occup": 3587,
      "reng": 3588,
      "mur": 3589,
      "ener": 3590,
      "treat": 3591,
      "overnor": 3592,
      "ems": 3593,
      "vin": 3594,
      "187": 3595,
      "Germany": 3596,
      "reviews": 3597,
      "India": 3598,
      "directed": 3599,
      "Vict": 3600,
      "viol": 3601,
      "interview": 3602,
      "NY": 3603,
      "ometimes": 3604,
      "alion": 3605,
      "itself": 3606,
      "sey": 3607,
      "give": 3608,
      "groups": 3609,
      "Ap": 3610,
      "Christian": 3611,
      "reme": 3612,
      "Mark": 3613,
      "gir": 3614,
      "La": 3615,
      "despite": 3616,
      "score": 3617,
      "vert": 3618,
      "respond": 3619,
      "atin": 3620,
      "Sou": 3621,
      "inner": 3622,
      "aters": 3623,
      "Times": 3624,
      "cru": 3625,
      "III": 3626,
      "thod": 3627,
      "Str": 3628,
      "prob": 3629,
      "perform": 3630,
      "UK": 3631,
      "ique": 3632,
      "beginning": 3633,
      "introduced": 3634,
      "Ter": 3635,
      "Sk": 3636,
      "ministr": 3637,
      "bour": 3638,
      "soldi": 3639,
      "College": 3640,
      "space": 3641,
      "happ": 3642,
      "onto": 3643,
      "frequ": 3644,
      "ida": 3645,
      "streng": 3646,
      "whose": 3647,
      "flight": 3648,
      "oring": 3649,
      "priv": 3650,
      "tur": 3651,
      "transfer": 3652,
      "Cast": 3653,
      "league": 3654,
      "Western": 3655,
      "ication": 3656,
      "sus": 3657,
      "ept": 3658,
      "prevent": 3659,
      "idea": 3660,
      "Mex": 3661,
      "brother": 3662,
      "Sim": 3663,
      "changes": 3664,
      "edy": 3665,
      "Sovi": 3666,
      "Jer": 3667,
      "election": 3668,
      "additional": 3669,
      "defeated": 3670,
      "gold": 3671,
      "Gold": 3672,
      "future": 3673,
      "ga": 3674,
      "igan": 3675,
      "conf": 3676,
      "ault": 3677,
      "whom": 3678,
      "Ke": 3679,
      "appl": 3680,
      "pil": 3681,
      "poor": 3682,
      "international": 3683,
      "ases": 3684,
      "Grand": 3685,
      "jud": 3686,
      "Awards": 3687,
      "ns": 3688,
      "Span": 3689,
      "anal": 3690,
      "native": 3691,
      "exten": 3692,
      "evidence": 3693,
      "structure": 3694,
      "changed": 3695,
      "quickly": 3696,
      "argu": 3697,
      "tom": 3698,
      "Tri": 3699,
      "center": 3700,
      "already": 3701,
      "specific": 3702,
      "market": 3703,
      "That": 3704,
      "Force": 3705,
      "photo": 3706,
      "radio": 3707,
      "situ": 3708,
      "material": 3709,
      "doc": 3710,
      "Day": 3711,
      "aint": 3712,
      "sem": 3713,
      "river": 3714,
      "Most": 3715,
      "coach": 3716,
      "agreed": 3717,
      "arrived": 3718,
      "atory": 3719,
      "study": 3720,
      "civil": 3721,
      "Bu": 3722,
      "Britain": 3723,
      "Met": 3724,
      "likely": 3725,
      "ctive": 3726,
      "staff": 3727,
      "dies": 3728,
      "decision": 3729,
      "slow": 3730,
      "umb": 3731,
      "emp": 3732,
      "lyr": 3733,
      "useum": 3734,
      "subject": 3735,
      "female": 3736,
      "lies": 3737,
      "money": 3738,
      "sometimes": 3739,
      "might": 3740,
      "limited": 3741,
      "surface": 3742,
      "response": 3743,
      "anch": 3744,
      "fleet": 3745,
      "espec": 3746,
      "Film": 3747,
      "names": 3748,
      "hop": 3749,
      "icted": 3750,
      "spr": 3751,
      "course": 3752,
      "magazine": 3753,
      "especially": 3754,
      "food": 3755,
      "apt": 3756,
      "ben": 3757,
      "actions": 3758,
      "nation": 3759,
      "ded": 3760,
      "Later": 3761,
      "33": 3762,
      "pet": 3763,
      "estimated": 3764,
      "liament": 3765,
      "broadcast": 3766,
      "carried": 3767,
      "Victor": 3768,
      "Championship": 3769,
      "flow": 3770,
      "Chin": 3771,
      "flood": 3772,
      "consider": 3773,
      "Pac": 3774,
      "shows": 3775,
      "Frank": 3776,
      "community": 3777,
      "sch": 3778,
      "guitar": 3779,
      "paren": 3780,
      "listed": 3781,
      "ples": 3782,
      "uded": 3783,
      "prepar": 3784,
      "musical": 3785,
      "scenes": 3786,
      "size": 3787,
      "rate": 3788,
      "remaining": 3789,
      "related": 3790,
      "1999": 3791,
      "eastern": 3792,
      "arrison": 3793,
      "minor": 3794,
      "bi": 3795,
      "berg": 3796,
      "plant": 3797,
      "text": 3798,
      "venue": 3799,
      "personal": 3800,
      "Over": 3801,
      "becoming": 3802,
      "Virginia": 3803,
      "natural": 3804,
      "Early": 3805,
      "Los": 3806,
      "cul": 3807,
      "larger": 3808,
      "division": 3809,
      "isl": 3810,
      "latter": 3811,
      "entered": 3812,
      "bot": 3813,
      "bell": 3814,
      "media": 3815,
      "object": 3816,
      "emer": 3817,
      "rights": 3818,
      "police": 3819,
      "summer": 3820,
      "ises": 3821,
      "Pat": 3822,
      "married": 3823,
      "suggested": 3824,
      "suit": 3825,
      "pressure": 3826,
      "approxim": 3827,
      "yard": 3828,
      "teams": 3829,
      "brief": 3830,
      "arrang": 3831,
      "ror": 3832,
      "liter": 3833,
      "itz": 3834,
      "Year": 3835,
      "daughter": 3836,
      "investig": 3837,
      "Just": 3838,
      "establish": 3839,
      "36": 3840,
      "surround": 3841,
      "Jackson": 3842,
      "students": 3843,
      "exper": 3844,
      "Second": 3845,
      "tax": 3846,
      "Di": 3847,
      "ena": 3848,
      "temporary": 3849,
      "effects": 3850,
      "kil": 3851,
      "Tex": 3852,
      "Chic": 3853,
      "prior": 3854,
      "episodes": 3855,
      "37": 3856,
      "favor": 3857,
      "woman": 3858,
      "If": 3859,
      "tons": 3860,
      "els": 3861,
      "alled": 3862,
      "Flor": 3863,
      "Louis": 3864,
      "worth": 3865,
      "winning": 3866,
      "fit": 3867,
      "Oly": 3868,
      "Tour": 3869,
      "iter": 3870,
      "clim": 3871,
      "Fle": 3872,
      "leaving": 3873,
      "destroyed": 3874,
      "irth": 3875,
      "mor": 3876,
      "sett": 3877,
      "mode": 3878,
      "Olymp": 3879,
      "avo": 3880,
      "selves": 3881,
      "tracks": 3882,
      "Green": 3883,
      "viron": 3884,
      "Lord": 3885,
      "join": 3886,
      "bs": 3887,
      "equip": 3888,
      "fail": 3889,
      "Spanish": 3890,
      "Club": 3891,
      "Ty": 3892,
      "pan": 3893,
      "sons": 3894,
      "provide": 3895,
      "reli": 3896,
      "relative": 3897,
      "igade": 3898,
      "territ": 3899,
      "idents": 3900,
      "polic": 3901,
      "mocr": 3902,
      "burg": 3903,
      "Aust": 3904,
      "aj": 3905,
      "vie": 3906,
      "proposed": 3907,
      "Pre": 3908,
      "influence": 3909,
      "intended": 3910,
      "Party": 3911,
      "overall": 3912,
      "aries": 3913,
      "Soviet": 3914,
      "verse": 3915,
      "32": 3916,
      "spo": 3917,
      "qual": 3918,
      "moving": 3919,
      "ening": 3920,
      "big": 3921,
      "running": 3922,
      "occas": 3923,
      "38": 3924,
      "supported": 3925,
      "artment": 3926,
      "distr": 3927,
      "Association": 3928,
      "escap": 3929,
      "fully": 3930,
      "ander": 3931,
      "quarter": 3932,
      "ek": 3933,
      "thers": 3934,
      "purch": 3935,
      "expected": 3936,
      "burn": 3937,
      "Rob": 3938,
      "Chicago": 3939,
      "Cal": 3940,
      "fell": 3941,
      "lot": 3942,
      "nearly": 3943,
      "49": 3944,
      "Many": 3945,
      "abs": 3946,
      "forward": 3947,
      "helped": 3948,
      "Love": 3949,
      "mach": 3950,
      "movement": 3951,
      "Record": 3952,
      "awarded": 3953,
      "1998": 3954,
      "Chinese": 3955,
      "mixed": 3956,
      "commercial": 3957,
      "ires": 3958,
      "Council": 3959,
      "bring": 3960,
      "Che": 3961,
      "rey": 3962,
      "secut": 3963,
      "marked": 3964,
      "issued": 3965,
      "closed": 3966,
      "Song": 3967,
      "experience": 3968,
      "create": 3969,
      "Super": 3970,
      "consist": 3971,
      "nu": 3972,
      "Oper": 3973,
      "stars": 3974,
      "Edward": 3975,
      "185": 3976,
      "Im": 3977,
      "stra": 3978,
      "dark": 3979,
      "planned": 3980,
      "bey": 3981,
      "syn": 3982,
      "Enter": 3983,
      "breed": 3984,
      "done": 3985,
      "legal": 3986,
      "Del": 3987,
      "dead": 3988,
      "longer": 3989,
      "iple": 3990,
      "fans": 3991,
      "ny": 3992,
      "joy": 3993,
      "language": 3994,
      "pow": 3995,
      "operation": 3996,
      "higher": 3997,
      "possib": 3998,
      "hood": 3999,
      "attract": 4000,
      "captured": 4001,
      "compared": 4002,
      "increasing": 4003,
      "300": 4004,
      "phen": 4005,
      "leader": 4006,
      "wing": 4007,
      "fill": 4008,
      "ili": 4009,
      "ari": 4010,
      "Johnson": 4011,
      "deep": 4012,
      "cele": 4013,
      "Ze": 4014,
      "approximately": 4015,
      "Lo": 4016,
      "living": 4017,
      "fish": 4018,
      "feature": 4019,
      "fifth": 4020,
      "bon": 4021,
      "temper": 4022,
      "themselves": 4023,
      "ato": 4024,
      "touch": 4025,
      "producer": 4026,
      "History": 4027,
      "dy": 4028,
      "print": 4029,
      "Kore": 4030,
      "chall": 4031,
      "mostly": 4032,
      "ech": 4033,
      "bad": 4034,
      "dig": 4035,
      "Pacific": 4036,
      "1st": 4037,
      "intens": 4038,
      "Back": 4039,
      "icles": 4040,
      "Billboard": 4041,
      "lor": 4042,
      "anced": 4043,
      "rica": 4044,
      "Go": 4045,
      "operations": 4046,
      "remains": 4047,
      "olk": 4048,
      "rd": 4049,
      "defeat": 4050,
      "appears": 4051,
      "mitted": 4052,
      "weap": 4053,
      "buildings": 4054,
      "whether": 4055,
      "34": 4056,
      "orial": 4057,
      "Ir": 4058,
      "bury": 4059,
      "aught": 4060,
      "Art": 4061,
      "los": 4062,
      "extended": 4063,
      "probably": 4064,
      "soldiers": 4065,
      "copies": 4066,
      "spired": 4067,
      "lan": 4068,
      "Hu": 4069,
      "plot": 4070,
      "ba": 4071,
      "Under": 4072,
      "Cro": 4073,
      "Squadron": 4074,
      "weight": 4075,
      "Queen": 4076,
      "voice": 4077,
      "heav": 4078,
      "Since": 4079,
      "pose": 4080,
      "1997": 4081,
      "lyrics": 4082,
      "Atlantic": 4083,
      "portr": 4084,
      "complex": 4085,
      "stream": 4086,
      "shoot": 4087,
      "jected": 4088,
      "battles": 4089,
      "transport": 4090,
      "deb": 4091,
      "really": 4092,
      "countries": 4093,
      "mas": 4094,
      "ender": 4095,
      "affe": 4096,
      "suffered": 4097,
      "Bal": 4098,
      "Mur": 4099,
      "ospital": 4100,
      "cm": 4101,
      "Test": 4102,
      "roll": 4103,
      "goals": 4104,
      "Lake": 4105,
      "Arch": 4106,
      "includes": 4107,
      "demand": 4108,
      "Florida": 4109,
      "carri": 4110,
      "andon": 4111,
      "igr": 4112,
      "issues": 4113,
      "Sever": 4114,
      "immediately": 4115,
      "health": 4116,
      "Law": 4117,
      "cting": 4118,
      "MS": 4119,
      "Both": 4120,
      "Tur": 4121,
      "Leg": 4122,
      "capital": 4123,
      "manager": 4124,
      "private": 4125,
      "request": 4126,
      "visit": 4127,
      "boy": 4128,
      "officers": 4129,
      "Sea": 4130,
      "Big": 4131,
      "48": 4132,
      "Jim": 4133,
      "Jew": 4134,
      "leave": 4135,
      "target": 4136,
      "cis": 4137,
      "ores": 4138,
      "location": 4139,
      "aging": 4140,
      "ams": 4141,
      "removed": 4142,
      "expand": 4143,
      "Station": 4144,
      "ultim": 4145,
      "Texas": 4146,
      "flict": 4147,
      "flag": 4148,
      "increase": 4149,
      "Tor": 4150,
      "FA": 4151,
      "yards": 4152,
      "Fort": 4153,
      "rich": 4154,
      "birth": 4155,
      "subsequently": 4156,
      "cit": 4157,
      "Bet": 4158,
      "status": 4159,
      "plans": 4160,
      "wa": 4161,
      "colon": 4162,
      "always": 4163,
      "offered": 4164,
      "fast": 4165,
      "portion": 4166,
      "amed": 4167,
      "confir": 4168,
      "services": 4169,
      "Ot": 4170,
      "mel": 4171,
      "upper": 4172,
      "China": 4173,
      "Old": 4174,
      "Mr": 4175,
      "ert": 4176,
      "Town": 4177,
      "Studi": 4178,
      "Another": 4179,
      "nes": 4180,
      "problems": 4181,
      "evolution": 4182,
      "attacks": 4183,
      "ging": 4184,
      "block": 4185,
      "gas": 4186,
      "instr": 4187,
      "twent": 4188,
      "Rad": 4189,
      "tainment": 4190,
      "How": 4191,
      "vey": 4192,
      "phy": 4193,
      "reser": 4194,
      "terms": 4195,
      "shire": 4196,
      "Earth": 4197,
      "demon": 4198,
      "oud": 4199,
      "forts": 4200,
      "something": 4201,
      "professional": 4202,
      "habit": 4203,
      "39": 4204,
      "aily": 4205,
      "carry": 4206,
      "administr": 4207,
      "village": 4208,
      "takes": 4209,
      "castle": 4210,
      "stitut": 4211,
      "majority": 4212,
      "ously": 4213,
      "orning": 4214,
      "discover": 4215,
      "discovered": 4216,
      "rat": 4217,
      "Rail": 4218,
      "vironment": 4219,
      "makes": 4220,
      "contr": 4221,
      "Canadian": 4222,
      "Boy": 4223,
      "ranked": 4224,
      "iser": 4225,
      "Emp": 4226,
      "composed": 4227,
      "job": 4228,
      "minute": 4229,
      "assigned": 4230,
      "Mat": 4231,
      "neg": 4232,
      "Africa": 4233,
      "elected": 4234,
      "Center": 4235,
      "concept": 4236,
      "anks": 4237,
      "damaged": 4238,
      "47": 4239,
      "Bow": 4240,
      "uries": 4241,
      "adop": 4242,
      "beat": 4243,
      "meeting": 4244,
      "otion": 4245,
      "initial": 4246,
      "cean": 4247,
      "aker": 4248,
      "mouth": 4249,
      "Wood": 4250,
      "Its": 4251,
      "adium": 4252,
      "cu": 4253,
      "iles": 4254,
      "revealed": 4255,
      "chester": 4256,
      "incor": 4257,
      "individual": 4258,
      "Bra": 4259,
      "Highway": 4260,
      "mat": 4261,
      "inspired": 4262,
      "onna": 4263,
      "raised": 4264,
      "Russian": 4265,
      "giving": 4266,
      "ulated": 4267,
      "lived": 4268,
      "itect": 4269,
      "olic": 4270,
      "plays": 4271,
      "financ": 4272,
      "necess": 4273,
      "Carol": 4274,
      "atives": 4275,
      "DV": 4276,
      "Mel": 4277,
      "yet": 4278,
      "respectively": 4279,
      "associated": 4280,
      "mic": 4281,
      "inent": 4282,
      "attacked": 4283,
      "Sir": 4284,
      "bul": 4285,
      "ails": 4286,
      "Hot": 4287,
      "numerous": 4288,
      "Martin": 4289,
      "1995": 4290,
      "Kent": 4291,
      "Central": 4292,
      "needed": 4293,
      "Trans": 4294,
      "actor": 4295,
      "mist": 4296,
      "heart": 4297,
      "Angeles": 4298,
      "grand": 4299,
      "ider": 4300,
      "stitute": 4301,
      "rout": 4302,
      "nature": 4303,
      "veh": 4304,
      "ado": 4305,
      "Francis": 4306,
      "friends": 4307,
      "uter": 4308,
      "impact": 4309,
      "distribut": 4310,
      "scient": 4311,
      "launched": 4312,
      "constructed": 4313,
      "cand": 4314,
      "occurred": 4315,
      "conditions": 4316,
      "stitution": 4317,
      "contains": 4318,
      "information": 4319,
      "shown": 4320,
      "domin": 4321,
      "pool": 4322,
      "sales": 4323,
      "attempted": 4324,
      "Congress": 4325,
      "estival": 4326,
      "books": 4327,
      "uments": 4328,
      "uals": 4329,
      "kind": 4330,
      "exam": 4331,
      "step": 4332,
      "struction": 4333,
      "piece": 4334,
      "2nd": 4335,
      "ications": 4336,
      "singer": 4337,
      "critical": 4338,
      "Prince": 4339,
      "Cle": 4340,
      "Bob": 4341,
      "Hal": 4342,
      "2016": 4343,
      "secur": 4344,
      "whole": 4345,
      "premi": 4346,
      "Mont": 4347,
      "1996": 4348,
      "19th": 4349,
      "ulf": 4350,
      "1950": 4351,
      "marri": 4352,
      "zz": 4353,
      "depression": 4354,
      "think": 4355,
      "Group": 4356,
      "ills": 4357,
      "earned": 4358,
      "ioned": 4359,
      "referred": 4360,
      "produce": 4361,
      "Empire": 4362,
      "cere": 4363,
      "mom": 4364,
      "letter": 4365,
      "Produ": 4366,
      "amount": 4367,
      "vention": 4368,
      "Not": 4369,
      "selected": 4370,
      "render": 4371,
      "46": 4372,
      "dev": 4373,
      "numbers": 4374,
      "distin": 4375,
      "finally": 4376,
      "smaller": 4377,
      "umed": 4378,
      "Pan": 4379,
      "resulted": 4380,
      "Penn": 4381,
      "Jose": 4382,
      "chief": 4383,
      "revol": 4384,
      "Cy": 4385,
      "fighting": 4386,
      "oph": 4387,
      "Out": 4388,
      "bio": 4389,
      "oil": 4390,
      "princ": 4391,
      "gain": 4392,
      "grant": 4393,
      "houses": 4394,
      "vic": 4395,
      "captain": 4396,
      "Camp": 4397,
      "slight": 4398,
      "celebr": 4399,
      "industry": 4400,
      "1994": 4401,
      "Italian": 4402,
      "largely": 4403,
      "wound": 4404,
      "ellow": 4405,
      "RA": 4406,
      "utch": 4407,
      "unit": 4408,
      "bing": 4409,
      "Ver": 4410,
      "commented": 4411,
      "DVD": 4412,
      "Corps": 4413,
      "Fer": 4414,
      "sched": 4415,
      "Ru": 4416,
      "ordin": 4417,
      "audience": 4418,
      "unable": 4419,
      "notes": 4420,
      "education": 4421,
      "acting": 4422,
      "traditional": 4423,
      "Crit": 4424,
      "trade": 4425,
      "artist": 4426,
      "atest": 4427,
      "gent": 4428,
      "legisl": 4429,
      "directly": 4430,
      "Eli": 4431,
      "ift": 4432,
      "improve": 4433,
      "ify": 4434,
      "recover": 4435,
      "Final": 4436,
      "Sto": 4437,
      "attention": 4438,
      "double": 4439,
      "sister": 4440,
      "dol": 4441,
      "refused": 4442,
      "spl": 4443,
      "Viet": 4444,
      "positions": 4445,
      "jun": 4446,
      "royal": 4447,
      "primary": 4448,
      "newsp": 4449,
      "method": 4450,
      "Philip": 4451,
      "coup": 4452,
      "Command": 4453,
      "secret": 4454,
      "Michigan": 4455,
      "imm": 4456,
      "ows": 4457,
      "blood": 4458,
      "lif": 4459,
      "horse": 4460,
      "quarters": 4461,
      "ighter": 4462,
      "180": 4463,
      "male": 4464,
      "below": 4465,
      "gradu": 4466,
      "web": 4467,
      "officer": 4468,
      "aland": 4469,
      "declared": 4470,
      "hero": 4471,
      "kin": 4472,
      "spect": 4473,
      "enjoy": 4474,
      "Long": 4475,
      "science": 4476,
      "Gar": 4477,
      "Wales": 4478,
      "Sol": 4479,
      "meant": 4480,
      "performances": 4481,
      "religious": 4482,
      "iff": 4483,
      "Spe": 4484,
      "standard": 4485,
      "Mass": 4486,
      "alle": 4487,
      "train": 4488,
      "Republic": 4489,
      "undred": 4490,
      "indic": 4491,
      "ray": 4492,
      "Rh": 4493,
      "owned": 4494,
      "mos": 4495,
      "commander": 4496,
      "lav": 4497,
      "middle": 4498,
      "conflict": 4499,
      "More": 4500,
      "izing": 4501,
      "ranch": 4502,
      "regard": 4503,
      "matches": 4504,
      "Cath": 4505,
      "repe": 4506,
      "orders": 4507,
      "ump": 4508,
      "kes": 4509,
      "achi": 4510,
      "model": 4511,
      "records": 4512,
      "Lin": 4513,
      "Democr": 4514,
      "rated": 4515,
      "Acad": 4516,
      "ett": 4517,
      "55": 4518,
      "wear": 4519,
      "Care": 4520,
      "Team": 4521,
      "pul": 4522,
      "competition": 4523,
      "progress": 4524,
      "ipal": 4525,
      "serious": 4526,
      "Ox": 4527,
      "district": 4528,
      "antasy": 4529,
      "Hel": 4530,
      "ka": 4531,
      "Sup": 4532,
      "severe": 4533,
      "vocals": 4534,
      "session": 4535,
      "viewers": 4536,
      "northeast": 4537,
      "Minister": 4538,
      "Several": 4539,
      "icient": 4540,
      "uten": 4541,
      "ady": 4542,
      "thr": 4543,
      "1992": 4544,
      "Major": 4545,
      "abandon": 4546,
      "energy": 4547,
      "document": 4548,
      "Gi": 4549,
      "rapid": 4550,
      "miral": 4551,
      "drum": 4552,
      "Chris": 4553,
      "dro": 4554,
      "centre": 4555,
      "cases": 4556,
      "Mem": 4557,
      "arrow": 4558,
      "forest": 4559,
      "die": 4560,
      "Lit": 4561,
      "continue": 4562,
      "itation": 4563,
      "dut": 4564,
      "orm": 4565,
      "iation": 4566,
      "atre": 4567,
      "traff": 4568,
      "Fore": 4569,
      "44": 4570,
      "theme": 4571,
      "oft": 4572,
      "wick": 4573,
      "Er": 4574,
      "mes": 4575,
      "determin": 4576,
      "writers": 4577,
      "Time": 4578,
      "favour": 4579,
      "nearby": 4580,
      "iled": 4581,
      "highly": 4582,
      "aware": 4583,
      "adult": 4584,
      "ishop": 4585,
      "Zealand": 4586,
      "separate": 4587,
      "combat": 4588,
      "Four": 4589,
      "atal": 4590,
      "Fox": 4591,
      "Soci": 4592,
      "cam": 4593,
      "thes": 4594,
      "Mexico": 4595,
      "effort": 4596,
      "presented": 4597,
      "attended": 4598,
      "culture": 4599,
      "bank": 4600,
      "incorpor": 4601,
      "reduced": 4602,
      "African": 4603,
      "annual": 4604,
      "urt": 4605,
      "edition": 4606,
      "metal": 4607,
      "practice": 4608,
      "20th": 4609,
      "arts": 4610,
      "umn": 4611,
      "except": 4612,
      "ogue": 4613,
      "rossing": 4614,
      "oo": 4615,
      "1930": 4616,
      "means": 4617,
      "sec": 4618,
      "levels": 4619,
      "divided": 4620,
      "Haw": 4621,
      "neigh": 4622,
      "osen": 4623,
      "tried": 4624,
      "ski": 4625,
      "Sum": 4626,
      "contact": 4627,
      "girl": 4628,
      "movie": 4629,
      "rang": 4630,
      "marriage": 4631,
      "omen": 4632,
      "thick": 4633,
      "twenty": 4634,
      "Ev": 4635,
      "accepted": 4636,
      "stating": 4637,
      "1993": 4638,
      "Madonna": 4639,
      "architect": 4640,
      "1991": 4641,
      "McC": 4642,
      "maxim": 4643,
      "aired": 4644,
      "responsible": 4645,
      "serve": 4646,
      "rein": 4647,
      "quality": 4648,
      "hi": 4649,
      "Wall": 4650,
      "mind": 4651,
      "Stone": 4652,
      "candid": 4653,
      "direction": 4654,
      "65": 4655,
      "Dou": 4656,
      "pick": 4657,
      "Scotland": 4658,
      "ona": 4659,
      "charge": 4660,
      "advance": 4661,
      "seem": 4662,
      "bled": 4663,
      "innings": 4664,
      "fru": 4665,
      "rating": 4666,
      "Jones": 4667,
      "words": 4668,
      "ands": 4669,
      "han": 4670,
      "iding": 4671,
      "Fed": 4672,
      "eve": 4673,
      "schools": 4674,
      "Their": 4675,
      "400": 4676,
      "pi": 4677,
      "wealth": 4678,
      "network": 4679,
      "ieve": 4680,
      "Dar": 4681,
      "rare": 4682,
      "managed": 4683,
      "Moun": 4684,
      "mob": 4685,
      "passing": 4686,
      "pret": 4687,
      "Simp": 4688,
      "function": 4689,
      "ria": 4690,
      "award": 4691,
      "ression": 4692,
      "Department": 4693,
      "Greek": 4694,
      "log": 4695,
      "illery": 4696,
      "efforts": 4697,
      "sides": 4698,
      "college": 4699,
      "economic": 4700,
      "pit": 4701,
      "resulting": 4702,
      "meaning": 4703,
      "paid": 4704,
      "ti": 4705,
      "Book": 4706,
      "psy": 4707,
      "dropped": 4708,
      "utenant": 4709,
      "showed": 4710,
      "asion": 4711,
      "guest": 4712,
      "rif": 4713,
      "iving": 4714,
      "Infantry": 4715,
      "inside": 4716,
      "environment": 4717,
      "Three": 4718,
      "mountain": 4719,
      "Rol": 4720,
      "murder": 4721,
      "kept": 4722,
      "hus": 4723,
      "dem": 4724,
      "cust": 4725,
      "allowing": 4726,
      "Americ": 4727,
      "cyclone": 4728,
      "ceremon": 4729,
      "Tim": 4730,
      "winter": 4731,
      "begins": 4732,
      "Bost": 4733,
      "controver": 4734,
      "variety": 4735,
      "morning": 4736,
      "chap": 4737,
      "nest": 4738,
      "Commit": 4739,
      "Games": 4740,
      "voy": 4741,
      "settle": 4742,
      "Williams": 4743,
      "ceeded": 4744,
      "arrest": 4745,
      "waters": 4746,
      "electric": 4747,
      "Service": 4748,
      "ole": 4749,
      "peror": 4750,
      "Sar": 4751,
      "inches": 4752,
      "schol": 4753,
      "farm": 4754,
      "Creek": 4755,
      "titled": 4756,
      "Tre": 4757,
      "Alli": 4758,
      "Records": 4759,
      "activity": 4760,
      "thur": 4761,
      "write": 4762,
      "lam": 4763,
      "airs": 4764,
      "continues": 4765,
      "ding": 4766,
      "rule": 4767,
      "hall": 4768,
      "drew": 4769,
      "Sur": 4770,
      "95": 4771,
      "dance": 4772,
      "symb": 4773,
      "squadron": 4774,
      "path": 4775,
      "oon": 4776,
      "source": 4777,
      "Parliament": 4778,
      "founded": 4779,
      "broke": 4780,
      "Up": 4781,
      "Stan": 4782,
      "SA": 4783,
      "restr": 4784,
      "Men": 4785,
      "pitch": 4786,
      "parents": 4787,
      "Post": 4788,
      "Foot": 4789,
      "News": 4790,
      "Will": 4791,
      "Hor": 4792,
      "hundred": 4793,
      "iced": 4794,
      "conducted": 4795,
      "starting": 4796,
      "phere": 4797,
      "sole": 4798,
      "your": 4799,
      "ites": 4800,
      "strugg": 4801,
      "vised": 4802,
      "Egy": 4803,
      "Ire": 4804,
      "excl": 4805,
      "Society": 4806,
      "Oh": 4807,
      "concert": 4808,
      "ounds": 4809,
      "presence": 4810,
      "1942": 4811,
      "aven": 4812,
      "ram": 4813,
      "Mic": 4814,
      "metres": 4815,
      "Southern": 4816,
      "zer": 4817,
      "spot": 4818,
      "Bridge": 4819,
      "SR": 4820,
      "speech": 4821,
      "BA": 4822,
      "sequence": 4823,
      "exhib": 4824,
      "crow": 4825,
      "selling": 4826,
      "cus": 4827,
      "rot": 4828,
      "multiple": 4829,
      "things": 4830,
      "transferred": 4831,
      "da": 4832,
      "companies": 4833,
      "contrast": 4834,
      "Committee": 4835,
      "portun": 4836,
      "foreign": 4837,
      "deliver": 4838,
      "Arthur": 4839,
      "enemy": 4840,
      "Ba": 4841,
      "pal": 4842,
      "oration": 4843,
      "peaked": 4844,
      "Latin": 4845,
      "pedo": 4846,
      "Captain": 4847,
      "Georg": 4848,
      "obtain": 4849,
      "Govern": 4850,
      "Hung": 4851,
      "isation": 4852,
      "plat": 4853,
      "stories": 4854,
      "recomm": 4855,
      "content": 4856,
      "Like": 4857,
      "Oxford": 4858,
      "becomes": 4859,
      "traffic": 4860,
      "account": 4861,
      "Far": 4862,
      "Admiral": 4863,
      "Spec": 4864,
      "mess": 4865,
      "greater": 4866,
      "Cross": 4867,
      "ami": 4868,
      "scoring": 4869,
      "Chief": 4870,
      "Joseph": 4871,
      "vocal": 4872,
      "concluded": 4873,
      "Secret": 4874,
      "potential": 4875,
      "Harrison": 4876,
      "property": 4877,
      "attempts": 4878,
      "loy": 4879,
      "Boston": 4880,
      "relatively": 4881,
      "Sat": 4882,
      "strength": 4883,
      "Manchester": 4884,
      "extens": 4885,
      "demonstr": 4886,
      "thir": 4887,
      "observed": 4888,
      "primarily": 4889,
      "birds": 4890,
      "federal": 4891,
      "lock": 4892,
      "va": 4893,
      "actually": 4894,
      "Because": 4895,
      "Before": 4896,
      "Egypt": 4897,
      "Kar": 4898,
      "sets": 4899,
      "prise": 4900,
      "financial": 4901,
      "odd": 4902,
      "animals": 4903,
      "64": 4904,
      "osaur": 4905,
      "Class": 4906,
      "collection": 4907,
      "propos": 4908,
      "Jeff": 4909,
      "Hurricane": 4910,
      "journal": 4911,
      "figure": 4912,
      "Sil": 4913,
      "Swed": 4914,
      "prov": 4915,
      "opportun": 4916,
      "onic": 4917,
      "eth": 4918,
      "identified": 4919,
      "featuring": 4920,
      "Commission": 4921,
      "ott": 4922,
      "repair": 4923,
      "tourn": 4924,
      "Life": 4925,
      "ky": 4926,
      "Den": 4927,
      "1944": 4928,
      "istics": 4929,
      "bles": 4930,
      "missed": 4931,
      "scale": 4932,
      "withdraw": 4933,
      "78": 4934,
      "distance": 4935,
      "situation": 4936,
      "Little": 4937,
      "mechan": 4938,
      "share": 4939,
      "Battalion": 4940,
      "versions": 4941,
      "independent": 4942,
      "passeng": 4943,
      "mond": 4944,
      "extreme": 4945,
      "corn": 4946,
      "ange": 4947,
      "Ram": 4948,
      "poet": 4949,
      "41": 4950,
      "uge": 4951,
      "thous": 4952,
      "anger": 4953,
      "Fred": 4954,
      "Dire": 4955,
      "resist": 4956,
      "Ken": 4957,
      "annel": 4958,
      "BBC": 4959,
      "fa": 4960,
      "collabor": 4961,
      "Paris": 4962,
      "Brad": 4963,
      "anna": 4964,
      "inking": 4965,
      "slightly": 4966,
      "image": 4967,
      "Series": 4968,
      "faced": 4969,
      "resh": 4970,
      "replac": 4971,
      "Fre": 4972,
      "olf": 4973,
      "suppl": 4974,
      "IS": 4975,
      "concent": 4976,
      "perial": 4977,
      "Gil": 4978,
      "sa": 4979,
      "here": 4980,
      "torpedo": 4981,
      "lap": 4982,
      "seconds": 4983,
      "Line": 4984,
      "150": 4985,
      "today": 4986,
      "colour": 4987,
      "Dun": 4988,
      "42": 4989,
      "ada": 4990,
      "Ann": 4991,
      "alleg": 4992,
      "1990": 4993,
      "trial": 4994,
      "completely": 4995,
      "ultimately": 4996,
      "proved": 4997,
      "square": 4998,
      "inte": 4999,
      "confirmed": 5000,
      "Croat": 5001,
      "76": 5002,
      "maximum": 5003,
      "vation": 5004,
      "behav": 5005,
      "pack": 5006,
      "struck": 5007,
      "prop": 5008,
      "Histor": 5009,
      "Light": 5010,
      "Max": 5011,
      "Academy": 5012,
      "sought": 5013,
      "cities": 5014,
      "Stephen": 5015,
      "branch": 5016,
      "1920": 5017,
      "tellig": 5018,
      "1945": 5019,
      "green": 5020,
      "policy": 5021,
      "dise": 5022,
      "calling": 5023,
      "blue": 5024,
      "serving": 5025,
      "stein": 5026,
      "society": 5027,
      "beth": 5028,
      "ita": 5029,
      "combined": 5030,
      "mainly": 5031,
      "weather": 5032,
      "cers": 5033,
      "Museum": 5034,
      "Van": 5035,
      "Saint": 5036,
      "ya": 5037,
      "commissioned": 5038,
      "designated": 5039,
      "Wal": 5040,
      "minim": 5041,
      "1941": 5042,
      "explained": 5043,
      "43": 5044,
      "cin": 5045,
      "naval": 5046,
      "officials": 5047,
      "northwest": 5048,
      "lvan": 5049,
      "influenced": 5050,
      "boat": 5051,
      "Bat": 5052,
      "border": 5053,
      "master": 5054,
      "benef": 5055,
      "conver": 5056,
      "vessel": 5057,
      "powerful": 5058,
      "Entertainment": 5059,
      "AC": 5060,
      "Italy": 5061,
      "Pop": 5062,
      "Gir": 5063,
      "Way": 5064,
      "alongside": 5065,
      "batter": 5066,
      "gn": 5067,
      "eval": 5068,
      "HL": 5069,
      "85": 5070,
      "gained": 5071,
      "visions": 5072,
      "Lee": 5073,
      "Brigade": 5074,
      "resol": 5075,
      "Americans": 5076,
      "ulations": 5077,
      "sources": 5078,
      "battleship": 5079,
      "orses": 5080,
      "older": 5081,
      "attend": 5082,
      "Vol": 5083,
      "successfully": 5084,
      "background": 5085,
      "systems": 5086,
      "organization": 5087,
      "says": 5088,
      "ito": 5089,
      "gency": 5090,
      "Ca": 5091,
      "astic": 5092,
      "theory": 5093,
      "peace": 5094,
      "industri": 5095,
      "recent": 5096,
      "feed": 5097,
      "Arab": 5098,
      "nominated": 5099,
      "sky": 5100,
      "alone": 5101,
      "artists": 5102,
      "reaching": 5103,
      "ils": 5104,
      "encour": 5105,
      "Regiment": 5106,
      "widely": 5107,
      "promoted": 5108,
      "problem": 5109,
      "stay": 5110,
      "yer": 5111,
      "sust": 5112,
      "seg": 5113,
      "ements": 5114,
      "ses": 5115,
      "elve": 5116,
      "edge": 5117,
      "husband": 5118,
      "results": 5119,
      "Ireland": 5120,
      "Ob": 5121,
      "bud": 5122,
      "Avenue": 5123,
      "news": 5124,
      "bass": 5125,
      "Gre": 5126,
      "bat": 5127,
      "dif": 5128,
      "sexual": 5129,
      "adel": 5130,
      "travel": 5131,
      "Middle": 5132,
      "brary": 5133,
      "Spr": 5134,
      "albums": 5135,
      "subsequent": 5136,
      "aling": 5137,
      "Fleet": 5138,
      "greatest": 5139,
      "cher": 5140,
      "roads": 5141,
      "invasion": 5142,
      "offer": 5143,
      "smo": 5144,
      "Live": 5145,
      "officially": 5146,
      "arms": 5147,
      "1989": 5148,
      "sixth": 5149,
      "Otto": 5150,
      "county": 5151,
      "affected": 5152,
      "fair": 5153,
      "lip": 5154,
      "southeast": 5155,
      "iano": 5156,
      "pilot": 5157,
      "opin": 5158,
      "acu": 5159,
      "illa": 5160,
      "shortly": 5161,
      "1943": 5162,
      "push": 5163,
      "din": 5164,
      "theless": 5165,
      "expressed": 5166,
      "contest": 5167,
      "spring": 5168,
      "appearances": 5169,
      "causing": 5170,
      "reception": 5171,
      "true": 5172,
      "doing": 5173,
      "Common": 5174,
      "represented": 5175,
      "armed": 5176,
      "Victoria": 5177,
      "Lie": 5178,
      "Ray": 5179,
      "shell": 5180,
      "organized": 5181,
      "Wind": 5182,
      "nown": 5183,
      "sense": 5184,
      "arent": 5185,
      "ols": 5186,
      "physical": 5187,
      "ota": 5188,
      "residents": 5189,
      "urban": 5190,
      "capac": 5191,
      "defense": 5192,
      "Catholic": 5193,
      "tun": 5194,
      "tells": 5195,
      "pieces": 5196,
      "aded": 5197,
      "Tropical": 5198,
      "seasons": 5199,
      "aga": 5200,
      "teach": 5201,
      "ansion": 5202,
      "Valley": 5203,
      "laid": 5204,
      "Land": 5205,
      "negot": 5206,
      "intend": 5207,
      "ategory": 5208,
      "CD": 5209,
      "itude": 5210,
      "179": 5211,
      "growth": 5212,
      "semb": 5213,
      "avoid": 5214,
      "require": 5215,
      "hospital": 5216,
      "ufact": 5217,
      "bodies": 5218,
      "MD": 5219,
      "IV": 5220,
      "actors": 5221,
      "Bul": 5222,
      "Dutch": 5223,
      "Though": 5224,
      "kg": 5225,
      "wal": 5226,
      "visited": 5227,
      "focus": 5228,
      "600": 5229,
      "dog": 5230,
      "ached": 5231,
      "chair": 5232,
      "fired": 5233,
      "Week": 5234,
      "artillery": 5235,
      "Bre": 5236,
      "3rd": 5237,
      "SS": 5238,
      "advant": 5239,
      "Commun": 5240,
      "plement": 5241,
      "Bus": 5242,
      "weapons": 5243,
      "atures": 5244,
      "fellow": 5245,
      "Show": 5246,
      "ahead": 5247,
      "vote": 5248,
      "Football": 5249,
      "arian": 5250,
      "dition": 5251,
      "Through": 5252,
      "eas": 5253,
      "usual": 5254,
      "question": 5255,
      "inson": 5256,
      "iron": 5257,
      "lvania": 5258,
      "heavily": 5259,
      "eigh": 5260,
      "Upon": 5261,
      "core": 5262,
      "leaders": 5263,
      "Kenn": 5264,
      "ysis": 5265,
      "Mountain": 5266,
      "1980s": 5267,
      "1940": 5268,
      "pedition": 5269,
      "PA": 5270,
      "Young": 5271,
      "spread": 5272,
      "student": 5273,
      "creation": 5274,
      "Ry": 5275,
      "Jul": 5276,
      "governor": 5277,
      "apparent": 5278,
      "Hy": 5279,
      "studies": 5280,
      "pun": 5281,
      "Good": 5282,
      "Well": 5283,
      "patter": 5284,
      "executive": 5285,
      "passes": 5286,
      "Tay": 5287,
      "floor": 5288,
      "ronic": 5289,
      "protest": 5290,
      "Ash": 5291,
      "ustr": 5292,
      "agreement": 5293,
      "arg": 5294,
      "wave": 5295,
      "capture": 5296,
      "debuted": 5297,
      "kilomet": 5298,
      "prominent": 5299,
      "ares": 5300,
      "Daniel": 5301,
      "ingu": 5302,
      "sions": 5303,
      "mile": 5304,
      "consisted": 5305,
      "setting": 5306,
      "Hum": 5307,
      "Def": 5308,
      "condition": 5309,
      "injury": 5310,
      "figures": 5311,
      "begin": 5312,
      "rical": 5313,
      "equipment": 5314,
      "amber": 5315,
      "instrument": 5316,
      "Bor": 5317,
      "lic": 5318,
      "Rog": 5319,
      "catch": 5320,
      "claims": 5321,
      "launch": 5322,
      "necessary": 5323,
      "negative": 5324,
      "matter": 5325,
      "defend": 5326,
      "Bey": 5327,
      "phil": 5328,
      "argued": 5329,
      "believ": 5330,
      "transl": 5331,
      "ki": 5332,
      "ights": 5333,
      "preser": 5334,
      "Eliza": 5335,
      "opposed": 5336,
      "earth": 5337,
      "dated": 5338,
      "anta": 5339,
      "Of": 5340,
      "normal": 5341,
      "returning": 5342,
      "Civil": 5343,
      "Homer": 5344,
      "Mah": 5345,
      "Ill": 5346,
      "contemporary": 5347,
      "fuel": 5348,
      "istrict": 5349,
      "wit": 5350,
      "Ele": 5351,
      "iated": 5352,
      "Top": 5353,
      "Mu": 5354,
      "arden": 5355,
      "1970s": 5356,
      "Os": 5357,
      "otes": 5358,
      "Northern": 5359,
      "famous": 5360,
      "pict": 5361,
      "Home": 5362,
      "ote": 5363,
      "graphic": 5364,
      "Jon": 5365,
      "77": 5366,
      "ube": 5367,
      "maintained": 5368,
      "rick": 5369,
      "glo": 5370,
      "frequently": 5371,
      "1960s": 5372,
      "couple": 5373,
      "table": 5374,
      "deg": 5375,
      "stations": 5376,
      "Main": 5377,
      "types": 5378,
      "finish": 5379,
      "District": 5380,
      "oul": 5381,
      "criticized": 5382,
      "activities": 5383,
      "kick": 5384,
      "ockey": 5385,
      "paper": 5386,
      "Sub": 5387,
      "sn": 5388,
      "Tele": 5389,
      "ien": 5390,
      "Fri": 5391,
      "Carolina": 5392,
      "deck": 5393,
      "Gal": 5394,
      "toward": 5395,
      "von": 5396,
      "rect": 5397,
      "Marsh": 5398,
      "heard": 5399,
      "machine": 5400,
      "mut": 5401,
      "drug": 5402,
      "citiz": 5403,
      "discuss": 5404,
      "occasion": 5405,
      "aces": 5406,
      "tournament": 5407,
      "reference": 5408,
      "Ocean": 5409,
      "reign": 5410,
      "Bond": 5411,
      "singles": 5412,
      "trees": 5413,
      "acts": 5414,
      "operated": 5415,
      "else": 5416,
      "folk": 5417,
      "1987": 5418,
      "Scottish": 5419,
      "senior": 5420,
      "planet": 5421,
      "acher": 5422,
      "rig": 5423,
      "ledge": 5424,
      "aspect": 5425,
      "medical": 5426,
      "territory": 5427,
      "trying": 5428,
      "worldwide": 5429,
      "vor": 5430,
      "achieve": 5431,
      "value": 5432,
      "eway": 5433,
      "Government": 5434,
      "1988": 5435,
      "atom": 5436,
      "Writ": 5437,
      "coal": 5438,
      "Fantasy": 5439,
      "System": 5440,
      "Governor": 5441,
      "TC": 5442,
      "eye": 5443,
      "Tem": 5444,
      "modif": 5445,
      "Operation": 5446,
      "66": 5447,
      "narr": 5448,
      "Background": 5449,
      "Ly": 5450,
      "horses": 5451,
      "holds": 5452,
      "Holly": 5453,
      "treatment": 5454,
      "historian": 5455,
      "color": 5456,
      "Colon": 5457,
      "hands": 5458,
      "sembly": 5459,
      "ocks": 5460,
      "Field": 5461,
      "Castle": 5462,
      "rainfall": 5463,
      "accident": 5464,
      "looking": 5465,
      "university": 5466,
      "Dev": 5467,
      "views": 5468,
      "therefore": 5469,
      "rum": 5470,
      "supply": 5471,
      "challeng": 5472,
      "Duke": 5473,
      "lers": 5474,
      "ini": 5475,
      "championship": 5476,
      "grew": 5477,
      "split": 5478,
      "chosen": 5479,
      "leaves": 5480,
      "assault": 5481,
      "shap": 5482,
      "crash": 5483,
      "Jud": 5484,
      "twice": 5485,
      "gam": 5486,
      "Studios": 5487,
      "gian": 5488,
      "ressed": 5489,
      "Short": 5490,
      "incident": 5491,
      "Polish": 5492,
      "shore": 5493,
      "reports": 5494,
      "cance": 5495,
      "walls": 5496,
      "stood": 5497,
      "rael": 5498,
      "Pen": 5499,
      "zed": 5500,
      "imen": 5501,
      "consecut": 5502,
      "ker": 5503,
      "escape": 5504,
      "Senate": 5505,
      "offensive": 5506,
      "velopment": 5507,
      "teenth": 5508,
      "stre": 5509,
      "Eastern": 5510,
      "follows": 5511,
      "Lew": 5512,
      "billion": 5513,
      "soundtrack": 5514,
      "acted": 5515,
      "Andrew": 5516,
      "wounded": 5517,
      "schedul": 5518,
      "manufact": 5519,
      "prompt": 5520,
      "editor": 5521,
      "pursu": 5522,
      "surrounding": 5523,
      "adapt": 5524,
      "Hard": 5525,
      "gate": 5526,
      "contained": 5527,
      "esc": 5528,
      "steam": 5529,
      "degree": 5530,
      "Pennsy": 5531,
      "ucky": 5532,
      "herself": 5533,
      "heads": 5534,
      "workers": 5535,
      "Christmas": 5536,
      "typically": 5537,
      "oting": 5538,
      "street": 5539,
      "rane": 5540,
      "pton": 5541,
      "servation": 5542,
      "Allied": 5543,
      "fiction": 5544,
      "simply": 5545,
      "lives": 5546,
      "symp": 5547,
      "Mean": 5548,
      "ette": 5549,
      "Wilson": 5550,
      "unknown": 5551,
      "Beat": 5552,
      "railway": 5553,
      "Mul": 5554,
      "wart": 5555,
      "rival": 5556,
      "regarded": 5557,
      "element": 5558,
      "Columb": 5559,
      "Dam": 5560,
      "mn": 5561,
      "Bell": 5562,
      "Taylor": 5563,
      "WW": 5564,
      "emphas": 5565,
      "dete": 5566,
      "Joe": 5567,
      "chose": 5568,
      "1986": 5569,
      "consecutive": 5570,
      "drive": 5571,
      "chance": 5572,
      "nothing": 5573,
      "Alexander": 5574,
      "authority": 5575,
      "cannot": 5576,
      "currently": 5577,
      "Each": 5578,
      "tail": 5579,
      "growing": 5580,
      "marine": 5581,
      "ifying": 5582,
      "newly": 5583,
      "ano": 5584,
      "awa": 5585,
      "Corn": 5586,
      "brown": 5587,
      "participated": 5588,
      "Rod": 5589,
      "website": 5590,
      "throw": 5591,
      "Wel": 5592,
      "casual": 5593,
      "Ha": 5594,
      "spirit": 5595,
      "err": 5596,
      "mentioned": 5597,
      "broken": 5598,
      "producers": 5599,
      "newspaper": 5600,
      "Tech": 5601,
      "Down": 5602,
      "Blue": 5603,
      "grade": 5604,
      "tree": 5605,
      "losing": 5606,
      "capacity": 5607,
      "isters": 5608,
      "ancing": 5609,
      "experiment": 5610,
      "exc": 5611,
      "Fam": 5612,
      "roof": 5613,
      "compar": 5614,
      "risk": 5615,
      "filming": 5616,
      "advanced": 5617,
      "adopted": 5618,
      "extra": 5619,
      "Festival": 5620,
      "advert": 5621,
      "firm": 5622,
      "moment": 5623,
      "boats": 5624,
      "Pennsylvania": 5625,
      "oppon": 5626,
      "disp": 5627,
      "What": 5628,
      "ilies": 5629,
      "opposition": 5630,
      "edom": 5631,
      "mann": 5632,
      "strike": 5633,
      "Storm": 5634,
      "Chart": 5635,
      "aud": 5636,
      "zy": 5637,
      "Islands": 5638,
      "basis": 5639,
      "uth": 5640,
      "door": 5641,
      "council": 5642,
      "oppos": 5643,
      "sites": 5644,
      "Sound": 5645,
      "budget": 5646,
      "imag": 5647,
      "plants": 5648,
      "Reception": 5649,
      "Night": 5650,
      "clo": 5651,
      "Liber": 5652,
      "Mike": 5653,
      "Kr": 5654,
      "fare": 5655,
      "abandoned": 5656,
      "yle": 5657,
      "committee": 5658,
      "Irish": 5659,
      "Further": 5660,
      "aved": 5661,
      "uce": 5662,
      "Head": 5663,
      "56": 5664,
      "Ret": 5665,
      "silver": 5666,
      "flying": 5667,
      "franch": 5668,
      "gal": 5669,
      "filmed": 5670,
      "bute": 5671,
      "otional": 5672,
      "ables": 5673,
      "creating": 5674,
      "purpose": 5675,
      "sections": 5676,
      "phas": 5677,
      "tower": 5678,
      "honor": 5679,
      "Albert": 5680,
      "Harry": 5681,
      "99": 5682,
      "homes": 5683,
      "Coast": 5684,
      "Spain": 5685,
      "inth": 5686,
      "chor": 5687,
      "Person": 5688,
      "wild": 5689,
      "expansion": 5690,
      "umber": 5691,
      "encounter": 5692,
      "ounger": 5693,
      "Jersey": 5694,
      "individuals": 5695,
      "possibly": 5696,
      "ju": 5697,
      "wel": 5698,
      "illy": 5699,
      "rush": 5700,
      "landing": 5701,
      "ager": 5702,
      "1990s": 5703,
      "beyond": 5704,
      "apers": 5705,
      "sail": 5706,
      "rank": 5707,
      "measure": 5708,
      "eration": 5709,
      "Bon": 5710,
      "failure": 5711,
      "fly": 5712,
      "Square": 5713,
      "deploy": 5714,
      "tery": 5715,
      "historical": 5716,
      "killing": 5717,
      "draft": 5718,
      "places": 5719,
      "Ron": 5720,
      "1939": 5721,
      "multi": 5722,
      "lane": 5723,
      "CA": 5724,
      "uff": 5725,
      "Origin": 5726,
      "achieved": 5727,
      "occupied": 5728,
      "believe": 5729,
      "genus": 5730,
      "paralle": 5731,
      "management": 5732,
      "Elizabeth": 5733,
      "ctic": 5734,
      "Bol": 5735,
      "roles": 5736,
      "intellig": 5737,
      "igg": 5738,
      "Production": 5739,
      "Ros": 5740,
      "sche": 5741,
      "Republ": 5742,
      "Public": 5743,
      "brid": 5744,
      "narrow": 5745,
      "retired": 5746,
      "ideas": 5747,
      "Institute": 5748,
      "azz": 5749,
      "58": 5750,
      "integr": 5751,
      "eu": 5752,
      "wid": 5753,
      "Israel": 5754,
      "rooms": 5755,
      "Kel": 5756,
      "improved": 5757,
      "disease": 5758,
      "bility": 5759,
      "crowd": 5760,
      "perman": 5761,
      "Broad": 5762,
      "eds": 5763,
      "briefly": 5764,
      "yl": 5765,
      "Due": 5766,
      "auto": 5767,
      "1985": 5768,
      "Revolution": 5769,
      "nick": 5770,
      "seat": 5771,
      "Bart": 5772,
      "effective": 5773,
      "porters": 5774,
      "1968": 5775,
      "granted": 5776,
      "administration": 5777,
      "Liver": 5778,
      "ocated": 5779,
      "mounted": 5780,
      "repeated": 5781,
      "receive": 5782,
      "sports": 5783,
      "personnel": 5784,
      "perfect": 5785,
      "advantage": 5786,
      "rejected": 5787,
      "ancy": 5788,
      "Meanwhile": 5789,
      "Republican": 5790,
      "unique": 5791,
      "twelve": 5792,
      "gives": 5793,
      "custom": 5794,
      "kilometres": 5795,
      "bom": 5796,
      "extensive": 5797,
      "rise": 5798,
      "leadership": 5799,
      "turns": 5800,
      "ques": 5801,
      "Doctor": 5802,
      "Album": 5803,
      "agg": 5804,
      "hair": 5805,
      "interchange": 5806,
      "avalry": 5807,
      "Clark": 5808,
      "Ven": 5809,
      "Greg": 5810,
      "Jes": 5811,
      "1970": 5812,
      "Ohio": 5813,
      "data": 5814,
      "sufficient": 5815,
      "experienced": 5816,
      "iring": 5817,
      "infantry": 5818,
      "crossing": 5819,
      "Sand": 5820,
      "evacu": 5821,
      "expanded": 5822,
      "controlled": 5823,
      "straight": 5824,
      "describes": 5825,
      "ani": 5826,
      "forming": 5827,
      "solo": 5828,
      "Secretary": 5829,
      "afety": 5830,
      "Board": 5831,
      "champion": 5832,
      "yellow": 5833,
      "choice": 5834,
      "Cub": 5835,
      "zil": 5836,
      "alty": 5837,
      "acquired": 5838,
      "attribut": 5839,
      "adelph": 5840,
      "didn": 5841,
      "credited": 5842,
      "1984": 5843,
      "Sel": 5844,
      "cé": 5845,
      "allows": 5846,
      "tend": 5847,
      "fought": 5848,
      "entr": 5849,
      "Pu": 5850,
      "note": 5851,
      "surrender": 5852,
      "sort": 5853,
      "Philadelph": 5854,
      "ero": 5855,
      "iments": 5856,
      "explos": 5857,
      "security": 5858,
      "determined": 5859,
      "caught": 5860,
      "abin": 5861,
      "animal": 5862,
      "hill": 5863,
      "inf": 5864,
      "vehicles": 5865,
      "suggests": 5866,
      "Are": 5867,
      "families": 5868,
      "venture": 5869,
      "psych": 5870,
      "amin": 5871,
      "titles": 5872,
      "Mir": 5873,
      "Even": 5874,
      "iday": 5875,
      "Arm": 5876,
      "stock": 5877,
      "52": 5878,
      "ancient": 5879,
      "drama": 5880,
      "Cambridge": 5881,
      "Georgia": 5882,
      "Bud": 5883,
      "haps": 5884,
      "article": 5885,
      "Never": 5886,
      "commonly": 5887,
      "guard": 5888,
      "DS": 5889,
      "kins": 5890,
      "Philadelphia": 5891,
      "Hon": 5892,
      "nuclear": 5893,
      "NC": 5894,
      "shark": 5895,
      "comedy": 5896,
      "mod": 5897,
      "seventh": 5898,
      "ivity": 5899,
      "800": 5900,
      "prefer": 5901,
      "eyes": 5902,
      "companied": 5903,
      "Rel": 5904,
      "enc": 5905,
      "Ul": 5906,
      "powers": 5907,
      "Sher": 5908,
      "iful": 5909,
      "sle": 5910,
      "acad": 5911,
      "authorities": 5912,
      "gi": 5913,
      "ardi": 5914,
      "headquarters": 5915,
      "connected": 5916,
      "holding": 5917,
      "anning": 5918,
      "yst": 5919,
      "sand": 5920,
      "sac": 5921,
      "contain": 5922,
      "burgh": 5923,
      "Ten": 5924,
      "Also": 5925,
      "labor": 5926,
      "centuries": 5927,
      "ridge": 5928,
      "islands": 5929,
      "1967": 5930,
      "store": 5931,
      "Addition": 5932,
      "attle": 5933,
      "Russia": 5934,
      "recently": 5935,
      "cultural": 5936,
      "End": 5937,
      "Hit": 5938,
      "ola": 5939,
      "beaut": 5940,
      "protected": 5941,
      "restling": 5942,
      "Point": 5943,
      "simple": 5944,
      "asc": 5945,
      "1980": 5946,
      "Gall": 5947,
      "wise": 5948,
      "estic": 5949,
      "Among": 5950,
      "Ottoman": 5951,
      "umes": 5952,
      "Liverpool": 5953,
      "depict": 5954,
      "finds": 5955,
      "decre": 5956,
      "Nintend": 5957,
      "reput": 5958,
      "singing": 5959,
      "Nintendo": 5960,
      "phone": 5961,
      "lyn": 5962,
      "turret": 5963,
      "battalion": 5964,
      "120": 5965,
      "Rose": 5966,
      "iana": 5967,
      "Chap": 5968,
      "etball": 5969,
      "Ve": 5970,
      "approved": 5971,
      "Columbia": 5972,
      "ont": 5973,
      "speak": 5974,
      "existing": 5975,
      "Asia": 5976,
      "accompanied": 5977,
      "dollar": 5978,
      "Tro": 5979,
      "defence": 5980,
      "goes": 5981,
      "containing": 5982,
      "orche": 5983,
      "entirely": 5984,
      "Pers": 5985,
      "erc": 5986,
      "height": 5987,
      "shop": 5988,
      "96": 5989,
      "fields": 5990,
      "agan": 5991,
      "bands": 5992,
      "Jean": 5993,
      "scheduled": 5994,
      "Prime": 5995,
      "sport": 5996,
      "analysis": 5997,
      "touchdown": 5998,
      "88": 5999,
      "Miss": 6000,
      "contributed": 6001,
      "Lincol": 6002,
      "extr": 6003,
      "themes": 6004,
      "Jenn": 6005,
      "Singap": 6006,
      "protect": 6007,
      "flooding": 6008,
      "Champion": 6009,
      "oll": 6010,
      "aste": 6011,
      "younger": 6012,
      "Development": 6013,
      "provides": 6014,
      "Korean": 6015,
      "computer": 6016,
      "purchased": 6017,
      "adap": 6018,
      "prising": 6019,
      "Lieutenant": 6020,
      "performing": 6021,
      "iny": 6022,
      "awards": 6023,
      "Jun": 6024,
      "1983": 6025,
      "quite": 6026,
      "Brazil": 6027,
      "FL": 6028,
      "locations": 6029,
      "Gulf": 6030,
      "Rus": 6031,
      "oma": 6032,
      "Mos": 6033,
      "isers": 6034,
      "Jewish": 6035,
      "Burn": 6036,
      "51": 6037,
      "Anderson": 6038,
      "arrival": 6039,
      "Hay": 6040,
      "conve": 6041,
      "Lis": 6042,
      "defensive": 6043,
      "Francisco": 6044,
      "viewed": 6045,
      "resem": 6046,
      "Ind": 6047,
      "engaged": 6048,
      "motion": 6049,
      "gather": 6050,
      "Singapore": 6051,
      "ceremony": 6052,
      "headed": 6053,
      "1964": 6054,
      "Order": 6055,
      "Lincoln": 6056,
      "expedition": 6057,
      "illustr": 6058,
      "filled": 6059,
      "Lar": 6060,
      "hang": 6061,
      "formula": 6062,
      "People": 6063,
      "1969": 6064,
      "victim": 6065,
      "mate": 6066,
      "Carey": 6067,
      "Sa": 6068,
      "Radio": 6069,
      "Office": 6070,
      "arc": 6071,
      "Die": 6072,
      "myth": 6073,
      "dedicated": 6074,
      "employed": 6075,
      "ko": 6076,
      "philos": 6077,
      "Han": 6078,
      "fresh": 6079,
      "Bas": 6080,
      "sun": 6081,
      "why": 6082,
      "intensity": 6083,
      "joint": 6084,
      "Disney": 6085,
      "prepared": 6086,
      "ees": 6087,
      "repl": 6088,
      "1914": 6089,
      "79": 6090,
      "1918": 6091,
      "HMS": 6092,
      "structures": 6093,
      "Kir": 6094,
      "PlayStation": 6095,
      "Dark": 6096,
      "cles": 6097,
      "ule": 6098,
      "agement": 6099,
      "industrial": 6100,
      "dry": 6101,
      "outs": 6102,
      "Oli": 6103,
      "1982": 6104,
      "defined": 6105,
      "PC": 6106,
      "charged": 6107,
      "cat": 6108,
      "sens": 6109,
      "1971": 6110,
      "Walter": 6111,
      "4th": 6112,
      "recru": 6113,
      "closely": 6114,
      "escort": 6115,
      "Steve": 6116,
      "consists": 6117,
      "Brian": 6118,
      "negoti": 6119,
      "Miller": 6120,
      "Lewis": 6121,
      "comic": 6122,
      "1966": 6123,
      "Si": 6124,
      "Metro": 6125,
      "drawn": 6126,
      "Ko": 6127,
      "technology": 6128,
      "1972": 6129,
      "Six": 6130,
      "Conference": 6131,
      "piano": 6132,
      "product": 6133,
      "1979": 6134,
      "focused": 6135,
      "Turn": 6136,
      "egg": 6137,
      "enge": 6138,
      "Byz": 6139,
      "Mis": 6140,
      "Once": 6141,
      "facilities": 6142,
      "elimin": 6143,
      "Brook": 6144,
      "18th": 6145,
      "supporting": 6146,
      "criticism": 6147,
      "protection": 6148,
      "union": 6149,
      "Olympic": 6150,
      "preced": 6151,
      "ji": 6152,
      "belong": 6153,
      "earch": 6154,
      "discus": 6155,
      "selection": 6156,
      "etic": 6157,
      "cars": 6158,
      "ilton": 6159,
      "susp": 6160,
      "Byzant": 6161,
      "ec": 6162,
      "tact": 6163,
      "visual": 6164,
      "shooting": 6165,
      "rence": 6166,
      "Grant": 6167,
      "Sus": 6168,
      "regions": 6169,
      "1965": 6170,
      "strip": 6171,
      "motor": 6172,
      "Railway": 6173,
      "trail": 6174,
      "NHL": 6175,
      "Emperor": 6176,
      "Child": 6177,
      "belief": 6178,
      "hired": 6179,
      "anda": 6180,
      "advis": 6181,
      "opportunity": 6182,
      "satis": 6183,
      "receiving": 6184,
      "onom": 6185,
      "rear": 6186,
      "substant": 6187,
      "1975": 6188,
      "recognized": 6189,
      "display": 6190,
      "correspond": 6191,
      "emb": 6192,
      "conference": 6193,
      "Es": 6194,
      "uct": 6195,
      "rupt": 6196,
      "kee": 6197,
      "Blo": 6198,
      "knot": 6199,
      "notable": 6200,
      "calls": 6201,
      "strengthen": 6202,
      "trains": 6203,
      "Jr": 6204,
      "Ep": 6205,
      "possess": 6206,
      "Ka": 6207,
      "Germans": 6208,
      "composition": 6209,
      "Gro": 6210,
      "providing": 6211,
      "alternative": 6212,
      "ours": 6213,
      "iance": 6214,
      "Hollywood": 6215,
      "Mod": 6216,
      "lb": 6217,
      "resident": 6218,
      "Davis": 6219,
      "Only": 6220,
      "1974": 6221,
      "liber": 6222,
      "charts": 6223,
      "ween": 6224,
      "merch": 6225,
      "Summer": 6226,
      "Cur": 6227,
      "59": 6228,
      "57": 6229,
      "agent": 6230,
      "rapidly": 6231,
      "exter": 6232,
      "izes": 6233,
      "southwest": 6234,
      "Water": 6235,
      "achu": 6236,
      "volume": 6237,
      "Serb": 6238,
      "tank": 6239,
      "1973": 6240,
      "Bank": 6241,
      "bac": 6242,
      "Indu": 6243,
      "publication": 6244,
      "Democratic": 6245,
      "aly": 6246,
      "resc": 6247,
      "desc": 6248,
      "digital": 6249,
      "shared": 6250,
      "Ri": 6251,
      "casualties": 6252,
      "Daily": 6253,
      "highlight": 6254,
      "Between": 6255,
      "Fall": 6256,
      "constant": 6257,
      "reaction": 6258,
      "hydro": 6259,
      "label": 6260,
      "Op": 6261,
      "temperature": 6262,
      "card": 6263,
      "lake": 6264,
      "unting": 6265,
      "missing": 6266,
      "economy": 6267,
      "1976": 6268,
      "Les": 6269,
      "adding": 6270,
      "involve": 6271,
      "ogy": 6272,
      "developing": 6273,
      "Knight": 6274,
      "Rome": 6275,
      "Lady": 6276,
      "68": 6277,
      "glass": 6278,
      "Jour": 6279,
      "letters": 6280,
      "uan": 6281,
      "steel": 6282,
      "iet": 6283,
      "intersection": 6284,
      "reflect": 6285,
      "Pet": 6286,
      "secondary": 6287,
      "icial": 6288,
      "popularity": 6289,
      "oncé": 6290,
      "eleven": 6291,
      "symbol": 6292,
      "inspir": 6293,
      "ods": 6294,
      "Mount": 6295,
      "formal": 6296,
      "getting": 6297,
      "Lind": 6298,
      "Special": 6299,
      "raid": 6300,
      "injured": 6301,
      "urb": 6302,
      "ceived": 6303,
      "isol": 6304,
      "losses": 6305,
      "itled": 6306,
      "Pit": 6307,
      "partn": 6308,
      "acks": 6309,
      "march": 6310,
      "painting": 6311,
      "brand": 6312,
      "franchise": 6313,
      "trip": 6314,
      "hed": 6315,
      "witness": 6316,
      "ads": 6317,
      "portray": 6318,
      "significantly": 6319,
      "Bad": 6320,
      "Women": 6321,
      "crimin": 6322,
      "save": 6323,
      "250": 6324,
      "knew": 6325,
      "semi": 6326,
      "Muslim": 6327,
      "poll": 6328,
      "abo": 6329,
      "hot": 6330,
      "emic": 6331,
      "Arts": 6332,
      "literature": 6333,
      "Beyoncé": 6334,
      "unte": 6335,
      "actress": 6336,
      "cricket": 6337,
      "abour": 6338,
      "54": 6339,
      "Nap": 6340,
      "mast": 6341,
      "math": 6342,
      "inal": 6343,
      "UN": 6344,
      "roughly": 6345,
      "Syd": 6346,
      "fash": 6347,
      "Dor": 6348,
      "remo": 6349,
      "dram": 6350,
      "Tam": 6351,
      "shape": 6352,
      "evin": 6353,
      "distinct": 6354,
      "inger": 6355,
      "regarding": 6356,
      "53": 6357,
      "brothers": 6358,
      "scientific": 6359,
      "anything": 6360,
      "ully": 6361,
      "ux": 6362,
      "museum": 6363,
      "grapher": 6364,
      "projects": 6365,
      "Colonel": 6366,
      "arranged": 6367,
      "introduction": 6368,
      "avig": 6369,
      "gameplay": 6370,
      "resistance": 6371,
      "bishop": 6372,
      "Naz": 6373,
      "nic": 6374,
      "89": 6375,
      "án": 6376,
      "Supreme": 6377,
      "neighbor": 6378,
      "IG": 6379,
      "ulate": 6380,
      "storyline": 6381,
      "reasons": 6382,
      "rules": 6383,
      "gro": 6384,
      "MA": 6385,
      "Nick": 6386,
      "zen": 6387,
      "distingu": 6388,
      "Press": 6389,
      "cells": 6390,
      "bid": 6391,
      "Kentucky": 6392,
      "daily": 6393,
      "Dy": 6394,
      "cool": 6395,
      "1946": 6396,
      "watched": 6397,
      "cruiser": 6398,
      "1981": 6399,
      "shaped": 6400,
      "missions": 6401,
      "accur": 6402,
      "stages": 6403,
      "itors": 6404,
      "plane": 6405,
      "ients": 6406,
      "aka": 6407,
      "istry": 6408,
      "perhaps": 6409,
      "enjoyed": 6410,
      "Gord": 6411,
      "annon": 6412,
      "turning": 6413,
      "renamed": 6414,
      "capable": 6415,
      "160": 6416,
      "laws": 6417,
      "1950s": 6418,
      "Bern": 6419,
      "opinion": 6420,
      "acres": 6421,
      "declined": 6422,
      "rhy": 6423,
      "Mun": 6424,
      "Norway": 6425,
      "trou": 6426,
      "estate": 6427,
      "setts": 6428,
      "converted": 6429,
      "Prote": 6430,
      "reputation": 6431,
      "ultural": 6432,
      "1917": 6433,
      "asser": 6434,
      "publish": 6435,
      "Fair": 6436,
      "cited": 6437,
      "abilities": 6438,
      "Massachu": 6439,
      "awn": 6440,
      "Olympics": 6441,
      "poem": 6442,
      "retire": 6443,
      "stable": 6444,
      "genre": 6445,
      "BN": 6446,
      "udes": 6447,
      "87": 6448,
      "Dream": 6449,
      "Ell": 6450,
      "dates": 6451,
      "Nel": 6452,
      "agric": 6453,
      "statement": 6454,
      "ading": 6455,
      "recon": 6456,
      "replace": 6457,
      "operating": 6458,
      "existence": 6459,
      "Det": 6460,
      "Base": 6461,
      "asty": 6462,
      "Massachusetts": 6463,
      "enh": 6464,
      "producing": 6465,
      "tos": 6466,
      "buried": 6467,
      "ulpt": 6468,
      "mad": 6469,
      "exact": 6470,
      "marks": 6471,
      "combination": 6472,
      "rog": 6473,
      "depth": 6474,
      "aug": 6475,
      "knowledge": 6476,
      "increasingly": 6477,
      "scholar": 6478,
      "heim": 6479,
      "limit": 6480,
      "BS": 6481,
      "ura": 6482,
      "graded": 6483,
      "IA": 6484,
      "stadium": 6485,
      "approached": 6486,
      "zone": 6487,
      "ride": 6488,
      "Pict": 6489,
      "lease": 6490,
      "Airport": 6491,
      "Gree": 6492,
      "aer": 6493,
      "flat": 6494,
      "Tod": 6495,
      "planning": 6496,
      "responded": 6497,
      "Vide": 6498,
      "Whit": 6499,
      "Independ": 6500,
      "Run": 6501,
      "easily": 6502,
      "Ari": 6503,
      "Golden": 6504,
      "collected": 6505,
      "1948": 6506,
      "amond": 6507,
      "bling": 6508,
      "anth": 6509,
      "Elect": 6510,
      "settlement": 6511,
      "sects": 6512,
      "expect": 6513,
      "Cir": 6514,
      "equal": 6515,
      "py": 6516,
      "succeeded": 6517,
      "exerc": 6518,
      "1960": 6519,
      "About": 6520,
      "photograph": 6521,
      "models": 6522,
      "Mit": 6523,
      "safety": 6524,
      "ctors": 6525,
      "Earl": 6526,
      "humans": 6527,
      "AD": 6528,
      "Simpsons": 6529,
      "learned": 6530,
      "sustained": 6531,
      "Pass": 6532,
      "platform": 6533,
      "86": 6534,
      "promotion": 6535,
      "Der": 6536,
      "Init": 6537,
      "secure": 6538,
      "ES": 6539,
      "1978": 6540,
      "owner": 6541,
      "sie": 6542,
      "Ice": 6543,
      "Kh": 6544,
      "FC": 6545,
      "carrying": 6546,
      "indicated": 6547,
      "baseball": 6548,
      "ias": 6549,
      "breeding": 6550,
      "exchange": 6551,
      "Rac": 6552,
      "Songs": 6553,
      "showing": 6554,
      "rol": 6555,
      "Vietnam": 6556,
      "youth": 6557,
      "athan": 6558,
      "Ball": 6559,
      "iger": 6560,
      "lasted": 6561,
      "aust": 6562,
      "ignment": 6563,
      "rob": 6564,
      "Stand": 6565,
      "Hugh": 6566,
      "icks": 6567,
      "violence": 6568,
      "MTV": 6569,
      "Imperial": 6570,
      "uration": 6571,
      "72": 6572,
      "seems": 6573,
      "paint": 6574,
      "weakened": 6575,
      "700": 6576,
      "Cape": 6577,
      "cruisers": 6578,
      "entry": 6579,
      "borough": 6580,
      "agu": 6581,
      "1915": 6582,
      "designs": 6583,
      "athlet": 6584,
      "Shortly": 6585,
      "univers": 6586,
      "cold": 6587,
      "auth": 6588,
      "proceed": 6589,
      "trust": 6590,
      "Poland": 6591,
      "freeway": 6592,
      "Hart": 6593,
      "1977": 6594,
      "earliest": 6595,
      "ruled": 6596,
      "Sydney": 6597,
      "landfall": 6598,
      "Maryland": 6599,
      "Moore": 6600,
      "safe": 6601,
      "description": 6602,
      "icate": 6603,
      "retained": 6604,
      "Who": 6605,
      "applied": 6606,
      "install": 6607,
      "Form": 6608,
      "programs": 6609,
      "assistant": 6610,
      "Naval": 6611,
      "urs": 6612,
      "69": 6613,
      "Found": 6614,
      "grounds": 6615,
      "none": 6616,
      "ampions": 6617,
      "reserve": 6618,
      "inton": 6619,
      "wich": 6620,
      "playoff": 6621,
      "serves": 6622,
      "page": 6623,
      "seas": 6624,
      "resour": 6625,
      "writes": 6626,
      "coastal": 6627,
      "hits": 6628,
      "issance": 6629,
      "insula": 6630,
      "Ra": 6631,
      "1963": 6632,
      "dial": 6633,
      "domestic": 6634,
      "fix": 6635,
      "entrance": 6636,
      "CE": 6637,
      "Band": 6638,
      "ental": 6639,
      "virt": 6640,
      "neut": 6641,
      "borne": 6642,
      "battery": 6643,
      "sculpt": 6644,
      "istan": 6645,
      "exclus": 6646,
      "ii": 6647,
      "Jay": 6648,
      "iverse": 6649,
      "items": 6650,
      "stret": 6651,
      "strate": 6652,
      "candidate": 6653,
      "Hun": 6654,
      "1916": 6655,
      "delivered": 6656,
      "Spring": 6657,
      "gradually": 6658,
      "stopped": 6659,
      "politics": 6660,
      "ining": 6661,
      "onym": 6662,
      "breaking": 6663,
      "heat": 6664,
      "Prin": 6665,
      "settled": 6666,
      "distribution": 6667,
      "Edu": 6668,
      "independence": 6669,
      "elled": 6670,
      "solid": 6671,
      "details": 6672,
      "eff": 6673,
      "interested": 6674,
      "warm": 6675,
      "apped": 6676,
      "Mulder": 6677,
      "towns": 6678,
      "Confed": 6679,
      "ears": 6680,
      "asks": 6681,
      "ries": 6682,
      "affect": 6683,
      "minister": 6684,
      "cinem": 6685,
      "Matt": 6686,
      "fine": 6687,
      "supplies": 6688,
      "Vo": 6689,
      "equival": 6690,
      "parties": 6691,
      "finding": 6692,
      "Gordon": 6693,
      "engines": 6694,
      "wr": 6695,
      "Tun": 6696,
      "prisoners": 6697,
      "camera": 6698,
      "1919": 6699,
      "ifications": 6700,
      "Bir": 6701,
      "decis": 6702,
      "appeal": 6703,
      "Stadium": 6704,
      "refle": 6705,
      "aret": 6706,
      "Rhodes": 6707,
      "gall": 6708,
      "Cont": 6709,
      "campus": 6710,
      "ador": 6711,
      "1962": 6712,
      "illi": 6713,
      "Carl": 6714,
      "online": 6715,
      "extremely": 6716,
      "Fire": 6717,
      "foss": 6718,
      "Adams": 6719,
      "entitled": 6720,
      "Here": 6721,
      "Net": 6722,
      "winner": 6723,
      "zo": 6724,
      "osis": 6725,
      "lee": 6726,
      "mical": 6727,
      "copy": 6728,
      "Premi": 6729,
      "decade": 6730,
      "convin": 6731,
      "bask": 6732,
      "67": 6733,
      "lets": 6734,
      "Kim": 6735,
      "rose": 6736,
      "studied": 6737,
      "iversary": 6738,
      "Theatre": 6739,
      "investigation": 6740,
      "1938": 6741,
      "offers": 6742,
      "evening": 6743,
      "regiment": 6744,
      "poration": 6745,
      "inois": 6746,
      "inary": 6747,
      "isms": 6748,
      "cler": 6749,
      "threatened": 6750,
      "pel": 6751,
      "Space": 6752,
      "consum": 6753,
      "bought": 6754,
      "Bowl": 6755,
      "hear": 6756,
      "message": 6757,
      "adapted": 6758,
      "survived": 6759,
      "voted": 6760,
      "knots": 6761,
      "stic": 6762,
      "aine": 6763,
      "Research": 6764,
      "Prof": 6765,
      "Sul": 6766,
      "rie": 6767,
      "proposal": 6768,
      "religion": 6769,
      "Justice": 6770,
      "relations": 6771,
      "61": 6772,
      "deaths": 6773,
      "classified": 6774,
      "routes": 6775,
      "Moon": 6776,
      "revolution": 6777,
      "download": 6778,
      "Instead": 6779,
      "crown": 6780,
      "swe": 6781,
      "Constant": 6782,
      "relief": 6783,
      "males": 6784,
      "izations": 6785,
      "kingdom": 6786,
      "installed": 6787,
      "reduce": 6788,
      "iers": 6789,
      "acid": 6790,
      "Age": 6791,
      "classic": 6792,
      "bottom": 6793,
      "mine": 6794,
      "phase": 6795,
      "ophy": 6796,
      "bourne": 6797,
      "specifically": 6798,
      "yo": 6799,
      "duty": 6800,
      "cation": 6801,
      "happy": 6802,
      "fi": 6803,
      "phoon": 6804,
      "recalled": 6805,
      "orter": 6806,
      "fict": 6807,
      "portrayed": 6808,
      "implement": 6809,
      "aked": 6810,
      "ansas": 6811,
      "ishes": 6812,
      "compon": 6813,
      "USA": 6814,
      "servative": 6815,
      "controversy": 6816,
      "ighters": 6817,
      "Tony": 6818,
      "causes": 6819,
      "uzz": 6820,
      "ira": 6821,
      "meters": 6822,
      "products": 6823,
      "Sav": 6824,
      "fal": 6825,
      "references": 6826,
      "imet": 6827,
      "everything": 6828,
      "Let": 6829,
      "Beach": 6830,
      "appropri": 6831,
      "typical": 6832,
      "62": 6833,
      "1956": 6834,
      "importance": 6835,
      "faith": 6836,
      "walk": 6837,
      "shel": 6838,
      "arrested": 6839,
      "send": 6840,
      "wides": 6841,
      "thin": 6842,
      "pread": 6843,
      "Alan": 6844,
      "bringing": 6845,
      "ati": 6846,
      "overs": 6847,
      "diss": 6848,
      "Anth": 6849,
      "Singles": 6850,
      "130": 6851,
      "visible": 6852,
      "pine": 6853,
      "express": 6854,
      "NBA": 6855,
      "invited": 6856,
      "tanks": 6857,
      "wan": 6858,
      "reading": 6859,
      "1930s": 6860,
      "AR": 6861,
      "entially": 6862,
      "presents": 6863,
      "opera": 6864,
      "Loc": 6865,
      "81": 6866,
      "Director": 6867,
      "admitted": 6868,
      "corner": 6869,
      "internal": 6870,
      "nomination": 6871,
      "crossed": 6872,
      "Video": 6873,
      "ja": 6874,
      "angle": 6875,
      "aints": 6876,
      "Bos": 6877,
      "lad": 6878,
      "Pur": 6879,
      "opher": 6880,
      "tall": 6881,
      "Simon": 6882,
      "istered": 6883,
      "starts": 6884,
      "sequences": 6885,
      "Power": 6886,
      "1936": 6887,
      "Critical": 6888,
      "crop": 6889,
      "equipped": 6890,
      "fil": 6891,
      "ipated": 6892,
      "Kong": 6893,
      "Iron": 6894,
      "IGN": 6895,
      "Engine": 6896,
      "concerns": 6897,
      "Hamilton": 6898,
      "emies": 6899,
      "volcan": 6900,
      "amoun": 6901,
      "actual": 6902,
      "principal": 6903,
      "incorporated": 6904,
      "convoy": 6905,
      "Nat": 6906,
      "Maria": 6907,
      "hun": 6908,
      "recommended": 6909,
      "crime": 6910,
      "ibility": 6911,
      "ranean": 6912,
      "remainder": 6913,
      "images": 6914,
      "Ow": 6915,
      "medal": 6916,
      "Adam": 6917,
      "ordan": 6918,
      "Jane": 6919,
      "dream": 6920,
      "Your": 6921,
      "UTC": 6922,
      "journey": 6923,
      "vard": 6924,
      "Donald": 6925,
      "prot": 6926,
      "shots": 6927,
      "price": 6928,
      "17th": 6929,
      "Wild": 6930,
      "Plot": 6931,
      "assess": 6932,
      "composer": 6933,
      "Kat": 6934,
      "ration": 6935,
      "objects": 6936,
      "ester": 6937,
      "funds": 6938,
      "una": 6939,
      "1961": 6940,
      "appointment": 6941,
      "Ur": 6942,
      "consisting": 6943,
      "ni": 6944,
      "females": 6945,
      "promote": 6946,
      "hr": 6947,
      "thew": 6948,
      "considerable": 6949,
      "ches": 6950,
      "leton": 6951,
      "ilation": 6952,
      "storms": 6953,
      "milit": 6954,
      "extension": 6955,
      "looked": 6956,
      "Indones": 6957,
      "spons": 6958,
      "snow": 6959,
      "otic": 6960,
      "ima": 6961,
      "charges": 6962,
      "frag": 6963,
      "claiming": 6964,
      "posted": 6965,
      "1953": 6966,
      "rett": 6967,
      "Today": 6968,
      "oured": 6969,
      "sters": 6970,
      "Death": 6971,
      "Kennedy": 6972,
      "Gram": 6973,
      "clean": 6974,
      "generation": 6975,
      "Memorial": 6976,
      "Rand": 6977,
      "duties": 6978,
      "Rem": 6979,
      "Nether": 6980,
      "7th": 6981,
      "mort": 6982,
      "Cleve": 6983,
      "hope": 6984,
      "bra": 6985,
      "someone": 6986,
      "wed": 6987,
      "Military": 6988,
      "rural": 6989,
      "beach": 6990,
      "Indiana": 6991,
      "Sunday": 6992,
      "Norman": 6993,
      "eighth": 6994,
      "mere": 6995,
      "cycle": 6996,
      "Howard": 6997,
      "gone": 6998,
      "decades": 6999,
      "driving": 7000,
      "5th": 7001,
      "Ant": 7002,
      "Sky": 7003,
      "Transport": 7004,
      "identity": 7005,
      "Scully": 7006,
      "Norwe": 7007,
      "acre": 7008,
      "connection": 7009,
      "oe": 7010,
      "Tit": 7011,
      "Walk": 7012,
      "outer": 7013,
      "canal": 7014,
      "occurs": 7015,
      "aki": 7016,
      "challenge": 7017,
      "manner": 7018,
      "afford": 7019,
      "Leon": 7020,
      "apping": 7021,
      "Harr": 7022,
      "ulture": 7023,
      "casting": 7024,
      "permanent": 7025,
      "answ": 7026,
      "Arsen": 7027,
      "perior": 7028,
      "brigade": 7029,
      "AAF": 7030,
      "aspects": 7031,
      "inher": 7032,
      "freedom": 7033,
      "ader": 7034,
      "Plan": 7035,
      "Hitler": 7036,
      "onia": 7037,
      "mole": 7038,
      "fashion": 7039,
      "1947": 7040,
      "entering": 7041,
      "thesis": 7042,
      "liked": 7043,
      "1958": 7044,
      "concerned": 7045,
      "classes": 7046,
      "willing": 7047,
      "tunnel": 7048,
      "Five": 7049,
      "1937": 7050,
      "ician": 7051,
      "noting": 7052,
      "attached": 7053,
      "rend": 7054,
      "110": 7055,
      "glas": 7056,
      "divisions": 7057,
      "Sl": 7058,
      "restaur": 7059,
      "hotel": 7060,
      "Brist": 7061,
      "Ross": 7062,
      "supporters": 7063,
      "Ryan": 7064,
      "ora": 7065,
      "slowly": 7066,
      "scar": 7067,
      "74": 7068,
      "dub": 7069,
      "cens": 7070,
      "lling": 7071,
      "san": 7072,
      "1910": 7073,
      "prised": 7074,
      "WWE": 7075,
      "itage": 7076,
      "Vill": 7077,
      "seeing": 7078,
      "involving": 7079,
      "nie": 7080,
      "describing": 7081,
      "enemies": 7082,
      "1957": 7083,
      "Bry": 7084,
      "Wars": 7085,
      "owners": 7086,
      "valu": 7087,
      "Project": 7088,
      "department": 7089,
      "oldest": 7090,
      "Science": 7091,
      "vessels": 7092,
      "Gun": 7093,
      "intention": 7094,
      "purchase": 7095,
      "equivalent": 7096,
      "resent": 7097,
      "til": 7098,
      "Assembly": 7099,
      "antly": 7100,
      "parliament": 7101,
      "debate": 7102,
      "junction": 7103,
      "obtained": 7104,
      "Jac": 7105,
      "iques": 7106,
      "agonist": 7107,
      "Pear": 7108,
      "theatre": 7109,
      "possibility": 7110,
      "regularly": 7111,
      "Magazine": 7112,
      "sessions": 7113,
      "mud": 7114,
      "basic": 7115,
      "63": 7116,
      "Rolling": 7117,
      "grave": 7118,
      "Cleveland": 7119,
      "iley": 7120,
      "convent": 7121,
      "agues": 7122,
      "brain": 7123,
      "pup": 7124,
      "icit": 7125,
      "populations": 7126,
      "Turk": 7127,
      "ici": 7128,
      "prede": 7129,
      "departure": 7130,
      "Jordan": 7131,
      "widespread": 7132,
      "erald": 7133,
      "recognition": 7134,
      "Hou": 7135,
      "income": 7136,
      "decline": 7137,
      "certified": 7138,
      "scious": 7139,
      "clip": 7140,
      "Pa": 7141,
      "Illinois": 7142,
      "committed": 7143,
      "constitut": 7144,
      "decor": 7145,
      "armor": 7146,
      "acknow": 7147,
      "Throughout": 7148,
      "accused": 7149,
      "Pot": 7150,
      "ynasty": 7151,
      "Douglas": 7152,
      "deleg": 7153,
      "nut": 7154,
      "Isa": 7155,
      "sequel": 7156,
      "Weekly": 7157,
      "derived": 7158,
      "check": 7159,
      "Master": 7160,
      "assumed": 7161,
      "regon": 7162,
      "Media": 7163,
      "Andy": 7164,
      "Pier": 7165,
      "frame": 7166,
      "wearing": 7167,
      "skin": 7168,
      "sam": 7169,
      "citizens": 7170,
      "Card": 7171,
      "agn": 7172,
      "survey": 7173,
      "1959": 7174,
      "Oregon": 7175,
      "Stanley": 7176,
      "iro": 7177,
      "Arsenal": 7178,
      "iven": 7179,
      "segment": 7180,
      "icide": 7181,
      "hosted": 7182,
      "Third": 7183,
      "returns": 7184,
      "valley": 7185,
      "torn": 7186,
      "intelligence": 7187,
      "stands": 7188,
      "DE": 7189,
      "historic": 7190,
      "lose": 7191,
      "denied": 7192,
      "animated": 7193,
      "Recording": 7194,
      "Freder": 7195,
      "Roger": 7196,
      "Cre": 7197,
      "Cas": 7198,
      "Ku": 7199,
      "regional": 7200,
      "Bruce": 7201,
      "iterranean": 7202,
      "parallel": 7203,
      "temple": 7204,
      "Beatles": 7205,
      "Key": 7206,
      "akers": 7207,
      "literary": 7208,
      "Family": 7209,
      "Kevin": 7210,
      "terminus": 7211,
      "Mexican": 7212,
      "1954": 7213,
      "thousands": 7214,
      "Norwegian": 7215,
      "inity": 7216,
      "guil": 7217,
      "altern": 7218,
      "6th": 7219,
      "transition": 7220,
      "1955": 7221,
      "circum": 7222,
      "Mediterranean": 7223,
      "interpret": 7224,
      "supposed": 7225,
      "pled": 7226,
      "graphics": 7227,
      "uni": 7228,
      "wickets": 7229,
      "Bristol": 7230,
      "gets": 7231,
      "Treat": 7232,
      "esh": 7233,
      "Gra": 7234,
      "mosphere": 7235,
      "Alf": 7236,
      "plate": 7237,
      "ione": 7238,
      "Allen": 7239,
      "intr": 7240,
      "fruit": 7241,
      "thedr": 7242,
      "ISBN": 7243,
      "noon": 7244,
      "raise": 7245,
      "proto": 7246,
      "strongly": 7247,
      "aboard": 7248,
      "eman": 7249,
      "Girl": 7250,
      "Ira": 7251,
      "behavior": 7252,
      "circulation": 7253,
      "sailed": 7254,
      "link": 7255,
      "Rain": 7256,
      "16th": 7257,
      "passengers": 7258,
      "Morgan": 7259,
      "convict": 7260,
      "impl": 7261,
      "clubs": 7262,
      "fictional": 7263,
      "thetic": 7264,
      "mates": 7265,
      "prey": 7266,
      "Federal": 7267,
      "emerged": 7268,
      "thirty": 7269,
      "races": 7270,
      "trait": 7271,
      "gers": 7272,
      "conscious": 7273,
      "aced": 7274,
      "tied": 7275,
      "ML": 7276,
      "ologist": 7277,
      "Glo": 7278,
      "commanded": 7279,
      "Bush": 7280,
      "Channel": 7281,
      "establishment": 7282,
      "tex": 7283,
      "Now": 7284,
      "shr": 7285,
      "aran": 7286,
      "neck": 7287,
      "Ali": 7288,
      "address": 7289,
      "magn": 7290,
      "replacement": 7291,
      "begun": 7292,
      "ocked": 7293,
      "costs": 7294,
      "norm": 7295,
      "downtown": 7296,
      "uous": 7297,
      "exception": 7298,
      "operate": 7299,
      "assistance": 7300,
      "conduct": 7301,
      "destruction": 7302,
      "moves": 7303,
      "vary": 7304,
      "instru": 7305,
      "generated": 7306,
      "telling": 7307,
      "emed": 7308,
      "Tenn": 7309,
      "migr": 7310,
      "feeling": 7311,
      "orient": 7312,
      "82": 7313,
      "apart": 7314,
      "atinum": 7315,
      "71": 7316,
      "attributed": 7317,
      "cou": 7318,
      "speaking": 7319,
      "sud": 7320,
      "task": 7321,
      "Forest": 7322,
      "kid": 7323,
      "Within": 7324,
      "Ut": 7325,
      "Korea": 7326,
      "13th": 7327,
      "demol": 7328,
      "finishing": 7329,
      "appearing": 7330,
      "opposite": 7331,
      "stayed": 7332,
      "anned": 7333,
      "driven": 7334,
      "orb": 7335,
      "sight": 7336,
      "Additionally": 7337,
      "Lisa": 7338,
      "unusual": 7339,
      "alleged": 7340,
      "Fame": 7341,
      "Argent": 7342,
      "properties": 7343,
      "dict": 7344,
      "joining": 7345,
      "recovered": 7346,
      "grass": 7347,
      "Dig": 7348,
      "volunte": 7349,
      "Kin": 7350,
      "atmosphere": 7351,
      "1952": 7352,
      "dipl": 7353,
      "cow": 7354,
      "73": 7355,
      "Row": 7356,
      "strateg": 7357,
      "abol": 7358,
      "shif": 7359,
      "occasionally": 7360,
      "Low": 7361,
      "institut": 7362,
      "Color": 7363,
      "chorus": 7364,
      "Confeder": 7365,
      "fighter": 7366,
      "Profess": 7367,
      "EC": 7368,
      "fled": 7369,
      "garrison": 7370,
      "Murray": 7371,
      "Robinson": 7372,
      "Ok": 7373,
      "responsibility": 7374,
      "abled": 7375,
      "effectively": 7376,
      "cavalry": 7377,
      "sounds": 7378,
      "Nich": 7379,
      "completion": 7380,
      "astron": 7381,
      "Prior": 7382,
      "Lenn": 7383,
      "Anne": 7384,
      "Morris": 7385,
      "methods": 7386,
      "atus": 7387,
      "dang": 7388,
      "Ever": 7389,
      "1933": 7390,
      "swim": 7391,
      "Somer": 7392,
      "Similar": 7393,
      "Television": 7394,
      "scrap": 7395,
      "alco": 7396,
      "Around": 7397,
      "Hawai": 7398,
      "84": 7399,
      "Unlike": 7400,
      "materials": 7401,
      "fitted": 7402,
      "Construction": 7403,
      "warning": 7404,
      "demo": 7405,
      "opt": 7406,
      "persu": 7407,
      "ingly": 7408,
      "iller": 7409,
      "girls": 7410,
      "province": 7411,
      "Lyn": 7412,
      "accom": 7413,
      "ords": 7414,
      "classical": 7415,
      "Anton": 7416,
      "surviving": 7417,
      "attracted": 7418,
      "technical": 7419,
      "doub": 7420,
      "global": 7421,
      "column": 7422,
      "erup": 7423,
      "Nelson": 7424,
      "climate": 7425,
      "fear": 7426,
      "poly": 7427,
      "classification": 7428,
      "differences": 7429,
      "quant": 7430,
      "Sweden": 7431,
      "Fish": 7432,
      "Finn": 7433,
      "reform": 7434,
      "sid": 7435,
      "inde": 7436,
      "1935": 7437,
      "Bi": 7438,
      "pure": 7439,
      "rus": 7440,
      "keeping": 7441,
      "Anim": 7442,
      "Patrick": 7443,
      "alph": 7444,
      "select": 7445,
      "association": 7446,
      "Winter": 7447,
      "boys": 7448,
      "passage": 7449,
      "Premier": 7450,
      "mobile": 7451,
      "tie": 7452,
      "uit": 7453,
      "sequently": 7454,
      "bels": 7455,
      "reality": 7456,
      "ratings": 7457,
      "ensure": 7458,
      "neither": 7459,
      "enses": 7460,
      "Fron": 7461,
      "count": 7462,
      "massive": 7463,
      "credit": 7464,
      "Toronto": 7465,
      "code": 7466,
      "concer": 7467,
      "poses": 7468,
      "aza": 7469,
      "reinforce": 7470,
      "1951": 7471,
      "painted": 7472,
      "1949": 7473,
      "Welsh": 7474,
      "Journal": 7475,
      "separated": 7476,
      "Temple": 7477,
      "thy": 7478,
      "desire": 7479,
      "FI": 7480,
      "Mas": 7481,
      "controversi": 7482,
      "outbreak": 7483,
      "weigh": 7484,
      "vehicle": 7485,
      "Nations": 7486,
      "fur": 7487,
      "votes": 7488,
      "seemed": 7489,
      "Byzantine": 7490,
      "Pi": 7491,
      "infe": 7492,
      "oslav": 7493,
      "predecess": 7494,
      "shar": 7495,
      "PS": 7496,
      "picture": 7497,
      "Web": 7498,
      "battleships": 7499,
      "cel": 7500,
      "memory": 7501,
      "tip": 7502,
      "hoped": 7503,
      "requested": 7504,
      "revi": 7505,
      "restored": 7506,
      "movements": 7507,
      "loyd": 7508,
      "soul": 7509,
      "carbon": 7510,
      "historians": 7511,
      "Gill": 7512,
      "Netherlands": 7513,
      "Ak": 7514,
      "Matthew": 7515,
      "basketball": 7516,
      "Chron": 7517,
      "funding": 7518,
      "Every": 7519,
      "scape": 7520,
      "difficulty": 7521,
      "Jam": 7522,
      "cript": 7523,
      "agle": 7524,
      "pir": 7525,
      "convinced": 7526,
      "communities": 7527,
      "fee": 7528,
      "Az": 7529,
      "remember": 7530,
      "uty": 7531,
      "Ford": 7532,
      "Dean": 7533,
      "CR": 7534,
      "thedral": 7535,
      "cos": 7536,
      "programme": 7537,
      "Dri": 7538,
      "ala": 7539,
      "Jews": 7540,
      "map": 7541,
      "premiere": 7542,
      "MI": 7543,
      "delayed": 7544,
      "praise": 7545,
      "Dog": 7546,
      "Open": 7547,
      "dating": 7548,
      "weapon": 7549,
      "discovery": 7550,
      "cloud": 7551,
      "batting": 7552,
      "inspiration": 7553,
      "otherwise": 7554,
      "solution": 7555,
      "greatly": 7556,
      "anniversary": 7557,
      "consult": 7558,
      "Design": 7559,
      "injuries": 7560,
      "anny": 7561,
      "leads": 7562,
      "assem": 7563,
      "ucks": 7564,
      "Again": 7565,
      "boil": 7566,
      "accounts": 7567,
      "Story": 7568,
      "Hero": 7569,
      "spoke": 7570,
      "94": 7571,
      "surrounded": 7572,
      "moral": 7573,
      "penalty": 7574,
      "98": 7575,
      "needs": 7576,
      "Techn": 7577,
      "1900": 7578,
      "bear": 7579,
      "Iraq": 7580,
      "partner": 7581,
      "pattern": 7582,
      "cock": 7583,
      "Russell": 7584,
      "Heart": 7585,
      "oked": 7586,
      "Thomp": 7587,
      "Ey": 7588,
      "ureau": 7589,
      "Bou": 7590,
      "Puer": 7591,
      "Sports": 7592,
      "ige": 7593,
      "Marine": 7594,
      "Sax": 7595,
      "strategy": 7596,
      "Av": 7597,
      "throne": 7598,
      "comparison": 7599,
      "Bishop": 7600,
      "DNA": 7601,
      "Tal": 7602,
      "Oak": 7603,
      "elev": 7604,
      "agree": 7605,
      "vive": 7606,
      "sees": 7607,
      "wrong": 7608,
      "Domin": 7609,
      "Lau": 7610,
      "documentary": 7611,
      "musicians": 7612,
      "architecture": 7613,
      "accompl": 7614,
      "crosses": 7615,
      "learn": 7616,
      "rates": 7617,
      "worst": 7618,
      "umin": 7619,
      "12th": 7620,
      "Pow": 7621,
      "ography": 7622,
      "termine": 7623,
      "Croatian": 7624,
      "Hop": 7625,
      "vince": 7626,
      "Thompson": 7627,
      "category": 7628,
      "rip": 7629,
      "formally": 7630,
      "Bah": 7631,
      "elling": 7632,
      "determine": 7633,
      "involvement": 7634,
      "chairman": 7635,
      "dismissed": 7636,
      "Armen": 7637,
      "NFL": 7638,
      "micro": 7639,
      "Centre": 7640,
      "sale": 7641,
      "ios": 7642,
      "cement": 7643,
      "adaptation": 7644,
      "Last": 7645,
      "MC": 7646,
      "remn": 7647,
      "Carter": 7648,
      "intense": 7649,
      "gross": 7650,
      "infl": 7651,
      "trained": 7652,
      "falling": 7653,
      "Kelly": 7654,
      "quir": 7655,
      "Dick": 7656,
      "Islam": 7657,
      "Puerto": 7658,
      "Shar": 7659,
      "ua": 7660,
      "somewhat": 7661,
      "resources": 7662,
      "Holy": 7663,
      "Brun": 7664,
      "Free": 7665,
      "NBC": 7666,
      "interests": 7667,
      "scheme": 7668,
      "forcing": 7669,
      "colonial": 7670,
      "MP": 7671,
      "medieval": 7672,
      "immediate": 7673,
      "library": 7674,
      "adults": 7675,
      "bond": 7676,
      "presidential": 7677,
      "rhyth": 7678,
      "oty": 7679,
      "pregn": 7680,
      "vul": 7681,
      "sized": 7682,
      "ardian": 7683,
      "tack": 7684,
      "legs": 7685,
      "alien": 7686,
      "Along": 7687,
      "fighters": 7688,
      "techniques": 7689,
      "invent": 7690,
      "lins": 7691,
      "ninth": 7692,
      "profit": 7693,
      "mont": 7694,
      "Niel": 7695,
      "themat": 7696,
      "starred": 7697,
      "academic": 7698,
      "elections": 7699,
      "Bed": 7700,
      "faces": 7701,
      "theat": 7702,
      "9th": 7703,
      "difference": 7704,
      "audio": 7705,
      "frequent": 7706,
      "stro": 7707,
      "modified": 7708,
      "commem": 7709,
      "passenger": 7710,
      "streets": 7711,
      "Hungarian": 7712,
      "Labor": 7713,
      "fold": 7714,
      "falls": 7715,
      "meets": 7716,
      "Hend": 7717,
      "oles": 7718,
      "BI": 7719,
      "1913": 7720,
      "pound": 7721,
      "ugu": 7722,
      "buy": 7723,
      "attacking": 7724,
      "electron": 7725,
      "bron": 7726,
      "reviewer": 7727,
      "Wright": 7728,
      "submarine": 7729,
      "premiered": 7730,
      "83": 7731,
      "bean": 7732,
      "Constitution": 7733,
      "absence": 7734,
      "Thus": 7735,
      "stan": 7736,
      "phr": 7737,
      "observ": 7738,
      "Batman": 7739,
      "controversial": 7740,
      "superior": 7741,
      "margin": 7742,
      "measures": 7743,
      "ava": 7744,
      "favorite": 7745,
      "interior": 7746,
      "engineer": 7747,
      "arrangement": 7748,
      "Parker": 7749,
      "Modern": 7750,
      "porter": 7751,
      "impressed": 7752,
      "Cra": 7753,
      "Hell": 7754,
      "airport": 7755,
      "Build": 7756,
      "deemed": 7757,
      "firing": 7758,
      "Harris": 7759,
      "romantic": 7760,
      "Steven": 7761,
      "Ban": 7762,
      "Pak": 7763,
      "1926": 7764,
      "shut": 7765,
      "landed": 7766,
      "conclusion": 7767,
      "Ath": 7768,
      "renew": 7769,
      "oman": 7770,
      "Bang": 7771,
      "characteristics": 7772,
      "belt": 7773,
      "Benn": 7774,
      "Eric": 7775,
      "facility": 7776,
      "encouraged": 7777,
      "1927": 7778,
      "Berlin": 7779,
      "enters": 7780,
      "unch": 7781,
      "giant": 7782,
      "afterwards": 7783,
      "retirement": 7784,
      "continuing": 7785,
      "Library": 7786,
      "munic": 7787,
      "colony": 7788,
      "talk": 7789,
      "temperatures": 7790,
      "wins": 7791,
      "myster": 7792,
      "convection": 7793,
      "everyone": 7794,
      "biography": 7795,
      "Seven": 7796,
      "1921": 7797,
      "informed": 7798,
      "crete": 7799,
      "suffering": 7800,
      "eggs": 7801,
      "secured": 7802,
      "infr": 7803,
      "legislation": 7804,
      "cha": 7805,
      "1934": 7806,
      "Minn": 7807,
      "ameter": 7808,
      "vac": 7809,
      "cloth": 7810,
      "Education": 7811,
      "horn": 7812,
      "toms": 7813,
      "tenance": 7814,
      "owed": 7815,
      "rome": 7816,
      "styles": 7817,
      "itzer": 7818,
      "wings": 7819,
      "Front": 7820,
      "believes": 7821,
      "distributed": 7822,
      "ipl": 7823,
      "cris": 7824,
      "ceased": 7825,
      "Late": 7826,
      "aux": 7827,
      "attempting": 7828,
      "Houston": 7829,
      "authors": 7830,
      "Police": 7831,
      "Beck": 7832,
      "defended": 7833,
      "iate": 7834,
      "pointed": 7835,
      "standards": 7836,
      "Commander": 7837,
      "rescue": 7838,
      "Cop": 7839,
      "ool": 7840,
      "archae": 7841,
      "ixon": 7842,
      "roit": 7843,
      "Palace": 7844,
      "Dist": 7845,
      "cancer": 7846,
      "facing": 7847,
      "judge": 7848,
      "habitat": 7849,
      "depicted": 7850,
      "apse": 7851,
      "monarch": 7852,
      "curren": 7853,
      "dominated": 7854,
      "900": 7855,
      "1912": 7856,
      "huge": 7857,
      "agas": 7858,
      "anyone": 7859,
      "carrier": 7860,
      "longest": 7861,
      "Wy": 7862,
      "Silver": 7863,
      "Santa": 7864,
      "Var": 7865,
      "acknowled": 7866,
      "asure": 7867,
      "biggest": 7868,
      "Swedish": 7869,
      "ware": 7870,
      "unsuccessful": 7871,
      "representing": 7872,
      "Commonwealth": 7873,
      "dress": 7874,
      "empt": 7875,
      "graphical": 7876,
      "Samuel": 7877,
      "Hospital": 7878,
      "Jacob": 7879,
      "stal": 7880,
      "merged": 7881,
      "Sab": 7882,
      "Vis": 7883,
      "finals": 7884,
      "Bri": 7885,
      "stances": 7886,
      "Simpson": 7887,
      "sudden": 7888,
      "Tok": 7889,
      "Cry": 7890,
      "remix": 7891,
      "ultane": 7892,
      "teor": 7893,
      "Reser": 7894,
      "abinet": 7895,
      "1932": 7896,
      "Yug": 7897,
      "Wis": 7898,
      "toll": 7899,
      "Track": 7900,
      "immigr": 7901,
      "Indians": 7902,
      "Offic": 7903,
      "layer": 7904,
      "comfort": 7905,
      "changing": 7906,
      "RAAF": 7907,
      "Yan": 7908,
      "harmon": 7909,
      "ners": 7910,
      "dimen": 7911,
      "pin": 7912,
      "veter": 7913,
      "releases": 7914,
      "ón": 7915,
      "aire": 7916,
      "convention": 7917,
      "140": 7918,
      "Corporation": 7919,
      "Mot": 7920,
      "uding": 7921,
      "91": 7922,
      "Cru": 7923,
      "Warner": 7924,
      "bridges": 7925,
      "Gard": 7926,
      "adj": 7927,
      "formerly": 7928,
      "beautiful": 7929,
      "93": 7930,
      "Yugoslav": 7931,
      "Jason": 7932,
      "Anthony": 7933,
      "TA": 7934,
      "retreat": 7935,
      "vy": 7936,
      "closer": 7937,
      "deployed": 7938,
      "comed": 7939,
      "moderate": 7940,
      "emergency": 7941,
      "97": 7942,
      "emotional": 7943,
      "Work": 7944,
      "intent": 7945,
      "hypo": 7946,
      "siege": 7947,
      "Raj": 7948,
      "oke": 7949,
      "AI": 7950,
      "questions": 7951,
      "journalist": 7952,
      "Social": 7953,
      "trials": 7954,
      "Wing": 7955,
      "festival": 7956,
      "narrative": 7957,
      "gay": 7958,
      "influential": 7959,
      "RAF": 7960,
      "bone": 7961,
      "Author": 7962,
      "Croatia": 7963,
      "satisf": 7964,
      "Rap": 7965,
      "thel": 7966,
      "Detroit": 7967,
      "Lam": 7968,
      "hunting": 7969,
      "oxy": 7970,
      "mart": 7971,
      "successor": 7972,
      "treated": 7973,
      "novels": 7974,
      "eless": 7975,
      "factory": 7976,
      "encies": 7977,
      "bright": 7978,
      "util": 7979,
      "influences": 7980,
      "Athen": 7981,
      "Gaga": 7982,
      "ugg": 7983,
      "eing": 7984,
      "acent": 7985,
      "1929": 7986,
      "aska": 7987,
      "courts": 7988,
      "suitable": 7989,
      "squad": 7990,
      "printed": 7991,
      "1911": 7992,
      "Anna": 7993,
      "Get": 7994,
      "hanna": 7995,
      "childhood": 7996,
      "assass": 7997,
      "experiences": 7998,
      "excess": 7999
    },
    "merges": [
      [
        "t",
        "h"
      ],
      [
        "i",
        "n"
      ],
      [
        "e",
        "r"
      ],
      [
        "a",
        "n"
      ],
      [
        "th",
        "e"
      ],
      [
        "o",
        "n"
      ],
      [
        "e",
        "d"
      ],
      [
        "r",
        "e"
      ],
      [
        "a",
        "t"
      ],
      [
        "e",
        "n"
      ],
      [
        "o",
        "r"
      ],
      [
        "a",
        "l"
      ],
      [
        "s",
        "t"
      ],
      [
        "a",
        "r"
      ],
      [
        "an",
        "d"
      ],
      [
        "a",
        "s"
      ],
      [
        "o",
        "f"
      ],
      [
        "in",
        "g"
      ],
      [
        "e",
        "s"
      ],
      [
        "t",
        "o"
      ],
      [
        "i",
        "s"
      ],
      [
        "i",
        "t"
      ],
      [
        "o",
        "u"
      ],
      [
        "i",
        "c"
      ],
      [
        "i",
        "on"
      ],
      [
        "l",
        "e"
      ],
      [
        "h",
        "e"
      ],
      [
        "r",
        "o"
      ],
      [
        "i",
        "l"
      ],
      [
        "a",
        "c"
      ],
      [
        "en",
        "t"
      ],
      [
        "a",
        "d"
      ],
      [
        "s",
        "e"
      ],
      [
        "u",
        "n"
      ],
      [
        "a",
        "m"
      ],
      [
        "o",
        "m"
      ],
      [
        "b",
        "e"
      ],
      [
        "l",
        "y"
      ],
      [
        "w",
        "as"
      ],
      [
        "f",
        "or"
      ],
      [
        "c",
        "h"
      ],
      [
        "v",
        "e"
      ],
      [
        "d",
        "e"
      ],
      [
        "u",
        "r"
      ],
      [
        "o",
        "l"
      ],
      [
        "i",
        "r"
      ],
      [
        "T",
        "he"
      ],
      [
        "i",
        "m"
      ],
      [
        "-",
        "@"
      ],
      [
        "@",
        "-@"
      ],
      [
        "i",
        "g"
      ],
      [
        "v",
        "er"
      ],
      [
        "t",
        "er"
      ],
      [
        "w",
        "h"
      ],
      [
        "o",
        "w"
      ],
      [
        "i",
        "th"
      ],
      [
        "c",
        "e"
      ],
      [
        "a",
        "y"
      ],
      [
        "c",
        "on"
      ],
      [
        "i",
        "d"
      ],
      [
        "at",
        "ion"
      ],
      [
        "c",
        "t"
      ],
      [
        "w",
        "ith"
      ],
      [
        "th",
        "at"
      ],
      [
        "a",
        "g"
      ],
      [
        "t",
        "e"
      ],
      [
        "b",
        "y"
      ],
      [
        "u",
        "s"
      ],
      [
        "o",
        "t"
      ],
      [
        "er",
        "e"
      ],
      [
        "e",
        "l"
      ],
      [
        "r",
        "i"
      ],
      [
        "u",
        "l"
      ],
      [
        "a",
        "p"
      ],
      [
        "u",
        "t"
      ],
      [
        "1",
        "9"
      ],
      [
        "e",
        "t"
      ],
      [
        "re",
        "s"
      ],
      [
        "a",
        "in"
      ],
      [
        "er",
        "s"
      ],
      [
        "o",
        "p"
      ],
      [
        "p",
        "l"
      ],
      [
        "c",
        "om"
      ],
      [
        "h",
        "is"
      ],
      [
        "ro",
        "m"
      ],
      [
        "u",
        "m"
      ],
      [
        "al",
        "l"
      ],
      [
        "0",
        "0"
      ],
      [
        "ou",
        "n"
      ],
      [
        "a",
        "b"
      ],
      [
        "un",
        "k"
      ],
      [
        "m",
        "o"
      ],
      [
        "i",
        "st"
      ],
      [
        "s",
        "u"
      ],
      [
        "n",
        "e"
      ],
      [
        "p",
        "ro"
      ],
      [
        "s",
        "h"
      ],
      [
        "f",
        "rom"
      ],
      [
        "p",
        "e"
      ],
      [
        "I",
        "n"
      ],
      [
        "c",
        "l"
      ],
      [
        "at",
        "e"
      ],
      [
        "a",
        "re"
      ],
      [
        "ar",
        "t"
      ],
      [
        "l",
        "i"
      ],
      [
        "t",
        "r"
      ],
      [
        "th",
        "er"
      ],
      [
        "ig",
        "h"
      ],
      [
        "o",
        "s"
      ],
      [
        "d",
        "i"
      ],
      [
        "e",
        "m"
      ],
      [
        "e",
        "x"
      ],
      [
        "b",
        "er"
      ],
      [
        "e",
        "st"
      ],
      [
        "ic",
        "h"
      ],
      [
        "w",
        "ere"
      ],
      [
        "l",
        "d"
      ],
      [
        "ar",
        "d"
      ],
      [
        "il",
        "l"
      ],
      [
        "o",
        "c"
      ],
      [
        "a",
        "k"
      ],
      [
        "a",
        "st"
      ],
      [
        "i",
        "es"
      ],
      [
        "an",
        "t"
      ],
      [
        "on",
        "g"
      ],
      [
        "p",
        "er"
      ],
      [
        "q",
        "u"
      ],
      [
        "g",
        "h"
      ],
      [
        "m",
        "ent"
      ],
      [
        "at",
        "ed"
      ],
      [
        "i",
        "ve"
      ],
      [
        "ou",
        "t"
      ],
      [
        "m",
        "an"
      ],
      [
        "am",
        "e"
      ],
      [
        "it",
        "y"
      ],
      [
        "f",
        "e"
      ],
      [
        "es",
        "s"
      ],
      [
        "ou",
        "r"
      ],
      [
        "h",
        "ad"
      ],
      [
        "o",
        "d"
      ],
      [
        "en",
        "d"
      ],
      [
        "is",
        "h"
      ],
      [
        "ac",
        "k"
      ],
      [
        "or",
        "t"
      ],
      [
        "on",
        "e"
      ],
      [
        "al",
        "s"
      ],
      [
        "e",
        "ar"
      ],
      [
        "a",
        "v"
      ],
      [
        "o",
        "ver"
      ],
      [
        "g",
        "e"
      ],
      [
        "t",
        "w"
      ],
      [
        "a",
        "f"
      ],
      [
        "wh",
        "ich"
      ],
      [
        "i",
        "p"
      ],
      [
        "ou",
        "gh"
      ],
      [
        "oun",
        "d"
      ],
      [
        "b",
        "ut"
      ],
      [
        "n",
        "ot"
      ],
      [
        "v",
        "i"
      ],
      [
        "ac",
        "t"
      ],
      [
        "g",
        "r"
      ],
      [
        "as",
        "s"
      ],
      [
        "or",
        "d"
      ],
      [
        "al",
        "ly"
      ],
      [
        "a",
        "ve"
      ],
      [
        "st",
        "r"
      ],
      [
        "igh",
        "t"
      ],
      [
        "in",
        "e"
      ],
      [
        "h",
        "er"
      ],
      [
        "ar",
        "y"
      ],
      [
        "r",
        "it"
      ],
      [
        "it",
        "s"
      ],
      [
        "d",
        "u"
      ],
      [
        "i",
        "v"
      ],
      [
        "u",
        "d"
      ],
      [
        "p",
        "r"
      ],
      [
        "e",
        "p"
      ],
      [
        "i",
        "an"
      ],
      [
        "i",
        "f"
      ],
      [
        "S",
        "t"
      ],
      [
        "C",
        "h"
      ],
      [
        "o",
        "re"
      ],
      [
        "2",
        "0"
      ],
      [
        "f",
        "ir"
      ],
      [
        "2",
        "00"
      ],
      [
        "u",
        "p"
      ],
      [
        "e",
        "w"
      ],
      [
        "ou",
        "ld"
      ],
      [
        "i",
        "a"
      ],
      [
        "ou",
        "s"
      ],
      [
        "ow",
        "n"
      ],
      [
        "d",
        "er"
      ],
      [
        "a",
        "u"
      ],
      [
        "b",
        "o"
      ],
      [
        "b",
        "l"
      ],
      [
        "a",
        "w"
      ],
      [
        "ct",
        "ion"
      ],
      [
        "w",
        "or"
      ],
      [
        "com",
        "p"
      ],
      [
        "e",
        "v"
      ],
      [
        "ac",
        "h"
      ],
      [
        "ag",
        "e"
      ],
      [
        "k",
        "e"
      ],
      [
        "at",
        "t"
      ],
      [
        "fir",
        "st"
      ],
      [
        "l",
        "and"
      ],
      [
        "p",
        "ort"
      ],
      [
        "ig",
        "n"
      ],
      [
        "it",
        "ion"
      ],
      [
        "for",
        "m"
      ],
      [
        "the",
        "ir"
      ],
      [
        "s",
        "i"
      ],
      [
        "ic",
        "al"
      ],
      [
        "l",
        "ow"
      ],
      [
        "s",
        "c"
      ],
      [
        "l",
        "o"
      ],
      [
        "i",
        "al"
      ],
      [
        "s",
        "er"
      ],
      [
        "t",
        "im"
      ],
      [
        "at",
        "er"
      ],
      [
        "p",
        "o"
      ],
      [
        "l",
        "l"
      ],
      [
        "als",
        "o"
      ],
      [
        "H",
        "e"
      ],
      [
        "wh",
        "o"
      ],
      [
        "b",
        "r"
      ],
      [
        "p",
        "art"
      ],
      [
        "in",
        "t"
      ],
      [
        "u",
        "re"
      ],
      [
        "1",
        "8"
      ],
      [
        "h",
        "as"
      ],
      [
        "o",
        "ther"
      ],
      [
        "re",
        "c"
      ],
      [
        "h",
        "ave"
      ],
      [
        "pl",
        "ay"
      ],
      [
        "om",
        "e"
      ],
      [
        "an",
        "s"
      ],
      [
        "p",
        "t"
      ],
      [
        "u",
        "st"
      ],
      [
        "con",
        "t"
      ],
      [
        "of",
        "f"
      ],
      [
        "re",
        "e"
      ],
      [
        "o",
        "k"
      ],
      [
        ".",
        "@"
      ],
      [
        "@",
        ".@"
      ],
      [
        "tw",
        "o"
      ],
      [
        "i",
        "le"
      ],
      [
        "en",
        "ce"
      ],
      [
        "p",
        "res"
      ],
      [
        "ur",
        "ing"
      ],
      [
        "be",
        "en"
      ],
      [
        "m",
        "e"
      ],
      [
        "ic",
        "e"
      ],
      [
        "an",
        "ce"
      ],
      [
        "w",
        "e"
      ],
      [
        "m",
        "er"
      ],
      [
        ",",
        "@"
      ],
      [
        "@",
        ",@"
      ],
      [
        "d",
        "is"
      ],
      [
        "20",
        "1"
      ],
      [
        "p",
        "os"
      ],
      [
        "T",
        "h"
      ],
      [
        "I",
        "t"
      ],
      [
        "th",
        "is"
      ],
      [
        "or",
        "y"
      ],
      [
        "y",
        "ear"
      ],
      [
        "af",
        "ter"
      ],
      [
        "re",
        "n"
      ],
      [
        "p",
        "h"
      ],
      [
        "ul",
        "t"
      ],
      [
        "c",
        "re"
      ],
      [
        "d",
        "es"
      ],
      [
        "el",
        "l"
      ],
      [
        "ac",
        "e"
      ],
      [
        "v",
        "ed"
      ],
      [
        "f",
        "in"
      ],
      [
        "ar",
        "k"
      ],
      [
        "ad",
        "e"
      ],
      [
        "the",
        "y"
      ],
      [
        "A",
        "n"
      ],
      [
        "ab",
        "le"
      ],
      [
        "m",
        "on"
      ],
      [
        "c",
        "o"
      ],
      [
        "s",
        "p"
      ],
      [
        "in",
        "cl"
      ],
      [
        "u",
        "e"
      ],
      [
        "it",
        "e"
      ],
      [
        "a",
        "il"
      ],
      [
        "U",
        "n"
      ],
      [
        "e",
        "ver"
      ],
      [
        "wor",
        "k"
      ],
      [
        "an",
        "g"
      ],
      [
        "s",
        "ion"
      ],
      [
        "a",
        "ir"
      ],
      [
        "f",
        "f"
      ],
      [
        "tim",
        "e"
      ],
      [
        "in",
        "ter"
      ],
      [
        "ur",
        "n"
      ],
      [
        "w",
        "ould"
      ],
      [
        "ation",
        "s"
      ],
      [
        "sh",
        "ip"
      ],
      [
        "p",
        "re"
      ],
      [
        "o",
        "g"
      ],
      [
        "c",
        "ed"
      ],
      [
        "in",
        "to"
      ],
      [
        "c",
        "ent"
      ],
      [
        "h",
        "im"
      ],
      [
        "c",
        "r"
      ],
      [
        "i",
        "z"
      ],
      [
        "ic",
        "k"
      ],
      [
        "ve",
        "l"
      ],
      [
        "s",
        "pe"
      ],
      [
        "s",
        "he"
      ],
      [
        "m",
        "ber"
      ],
      [
        "ic",
        "t"
      ],
      [
        "at",
        "es"
      ],
      [
        "n",
        "o"
      ],
      [
        "i",
        "e"
      ],
      [
        "as",
        "ed"
      ],
      [
        "mo",
        "re"
      ],
      [
        "it",
        "ed"
      ],
      [
        "il",
        "m"
      ],
      [
        "m",
        "in"
      ],
      [
        "ol",
        "d"
      ],
      [
        "w",
        "ay"
      ],
      [
        "t",
        "y"
      ],
      [
        "i",
        "re"
      ],
      [
        "mo",
        "st"
      ],
      [
        "c",
        "es"
      ],
      [
        "ne",
        "w"
      ],
      [
        "am",
        "p"
      ],
      [
        "s",
        "on"
      ],
      [
        "f",
        "ore"
      ],
      [
        "m",
        "ain"
      ],
      [
        "A",
        "r"
      ],
      [
        "be",
        "c"
      ],
      [
        "A",
        "l"
      ],
      [
        "r",
        "y"
      ],
      [
        "an",
        "y"
      ],
      [
        "t",
        "en"
      ],
      [
        "as",
        "e"
      ],
      [
        "re",
        "t"
      ],
      [
        "us",
        "ed"
      ],
      [
        "as",
        "on"
      ],
      [
        "f",
        "l"
      ],
      [
        "an",
        "n"
      ],
      [
        "o",
        "od"
      ],
      [
        "incl",
        "ud"
      ],
      [
        "con",
        "d"
      ],
      [
        "ct",
        "ed"
      ],
      [
        "c",
        "ess"
      ],
      [
        "ing",
        "s"
      ],
      [
        "r",
        "an"
      ],
      [
        "in",
        "d"
      ],
      [
        "v",
        "is"
      ],
      [
        "or",
        "s"
      ],
      [
        "r",
        "ed"
      ],
      [
        "wh",
        "en"
      ],
      [
        "f",
        "ilm"
      ],
      [
        "d",
        "ay"
      ],
      [
        "l",
        "es"
      ],
      [
        "t",
        "ed"
      ],
      [
        "er",
        "ed"
      ],
      [
        "r",
        "ough"
      ],
      [
        "a",
        "th"
      ],
      [
        "il",
        "d"
      ],
      [
        "com",
        "m"
      ],
      [
        "w",
        "ard"
      ],
      [
        "t",
        "on"
      ],
      [
        "c",
        "ol"
      ],
      [
        "ak",
        "e"
      ],
      [
        "ic",
        "an"
      ],
      [
        "M",
        "ar"
      ],
      [
        "A",
        "u"
      ],
      [
        "o",
        "b"
      ],
      [
        "b",
        "u"
      ],
      [
        "th",
        "ough"
      ],
      [
        "g",
        "an"
      ],
      [
        "t",
        "s"
      ],
      [
        "e",
        "en"
      ],
      [
        "ion",
        "s"
      ],
      [
        "re",
        "g"
      ],
      [
        "s",
        "y"
      ],
      [
        "en",
        "s"
      ],
      [
        "W",
        "h"
      ],
      [
        "d",
        "uring"
      ],
      [
        "r",
        "a"
      ],
      [
        "th",
        "an"
      ],
      [
        "R",
        "e"
      ],
      [
        "O",
        "n"
      ],
      [
        "D",
        "e"
      ],
      [
        "ag",
        "ain"
      ],
      [
        "g",
        "ame"
      ],
      [
        "o",
        "se"
      ],
      [
        "s",
        "o"
      ],
      [
        "un",
        "der"
      ],
      [
        "b",
        "le"
      ],
      [
        "u",
        "bl"
      ],
      [
        "g",
        "en"
      ],
      [
        "n",
        "or"
      ],
      [
        "ch",
        "ar"
      ],
      [
        "pro",
        "du"
      ],
      [
        "19",
        "9"
      ],
      [
        "on",
        "ly"
      ],
      [
        "c",
        "k"
      ],
      [
        "ol",
        "low"
      ],
      [
        "the",
        "m"
      ],
      [
        "ab",
        "out"
      ],
      [
        "ro",
        "w"
      ],
      [
        "c",
        "an"
      ],
      [
        "ent",
        "s"
      ],
      [
        "wh",
        "ile"
      ],
      [
        "N",
        "ew"
      ],
      [
        "i",
        "de"
      ],
      [
        "ation",
        "al"
      ],
      [
        "s",
        "ome"
      ],
      [
        "s",
        "ong"
      ],
      [
        "E",
        "n"
      ],
      [
        "re",
        "le"
      ],
      [
        "l",
        "ater"
      ],
      [
        "o",
        "y"
      ],
      [
        "l",
        "ed"
      ],
      [
        "tw",
        "een"
      ],
      [
        "ou",
        "th"
      ],
      [
        "be",
        "tween"
      ],
      [
        "e",
        "le"
      ],
      [
        "s",
        "ing"
      ],
      [
        "th",
        "ree"
      ],
      [
        "1",
        "0"
      ],
      [
        "at",
        "ing"
      ],
      [
        "A",
        "f"
      ],
      [
        "wh",
        "ere"
      ],
      [
        "th",
        "rough"
      ],
      [
        "n",
        "um"
      ],
      [
        "r",
        "on"
      ],
      [
        "c",
        "oun"
      ],
      [
        "a",
        "id"
      ],
      [
        "A",
        "s"
      ],
      [
        "se",
        "ason"
      ],
      [
        "ic",
        "s"
      ],
      [
        "vi",
        "ew"
      ],
      [
        "f",
        "ul"
      ],
      [
        "l",
        "ar"
      ],
      [
        "con",
        "s"
      ],
      [
        "A",
        "mer"
      ],
      [
        "m",
        "y"
      ],
      [
        "t",
        "ain"
      ],
      [
        "er",
        "n"
      ],
      [
        "w",
        "rit"
      ],
      [
        "str",
        "u"
      ],
      [
        "su",
        "b"
      ],
      [
        "i",
        "ed"
      ],
      [
        "the",
        "n"
      ],
      [
        "re",
        "l"
      ],
      [
        "i",
        "ver"
      ],
      [
        "k",
        "n"
      ],
      [
        "00",
        "0"
      ],
      [
        "ul",
        "ar"
      ],
      [
        "d",
        "r"
      ],
      [
        "L",
        "e"
      ],
      [
        "ter",
        "s"
      ],
      [
        "J",
        "o"
      ],
      [
        "se",
        "cond"
      ],
      [
        "h",
        "igh"
      ],
      [
        "se",
        "l"
      ],
      [
        "m",
        "ade"
      ],
      [
        "m",
        "ed"
      ],
      [
        "se",
        "t"
      ],
      [
        "C",
        "om"
      ],
      [
        "e",
        "f"
      ],
      [
        "am",
        "es"
      ],
      [
        "b",
        "um"
      ],
      [
        "rec",
        "ord"
      ],
      [
        "f",
        "our"
      ],
      [
        "f",
        "ollow"
      ],
      [
        "d",
        "o"
      ],
      [
        "spe",
        "c"
      ],
      [
        "g",
        "o"
      ],
      [
        "su",
        "ch"
      ],
      [
        "l",
        "oc"
      ],
      [
        "1",
        "7"
      ],
      [
        "s",
        "ur"
      ],
      [
        "ish",
        "ed"
      ],
      [
        "c",
        "ap"
      ],
      [
        "ar",
        "ri"
      ],
      [
        "en",
        "g"
      ],
      [
        "u",
        "b"
      ],
      [
        "be",
        "fore"
      ],
      [
        "at",
        "ch"
      ],
      [
        "N",
        "o"
      ],
      [
        "b",
        "ack"
      ],
      [
        "th",
        "ere"
      ],
      [
        "c",
        "ur"
      ],
      [
        "te",
        "am"
      ],
      [
        "w",
        "ell"
      ],
      [
        "m",
        "us"
      ],
      [
        "1",
        "5"
      ],
      [
        "year",
        "s"
      ],
      [
        "i",
        "el"
      ],
      [
        "ap",
        "pe"
      ],
      [
        "ch",
        "o"
      ],
      [
        "v",
        "en"
      ],
      [
        "m",
        "a"
      ],
      [
        "ad",
        "d"
      ],
      [
        "in",
        "n"
      ],
      [
        "T",
        "his"
      ],
      [
        "id",
        "ent"
      ],
      [
        "su",
        "p"
      ],
      [
        "k",
        "s"
      ],
      [
        "p",
        "ol"
      ],
      [
        "al",
        "bum"
      ],
      [
        "C",
        "on"
      ],
      [
        "if",
        "ic"
      ],
      [
        "p",
        "ubl"
      ],
      [
        "ro",
        "s"
      ],
      [
        "re",
        "at"
      ],
      [
        "ow",
        "ever"
      ],
      [
        "il",
        "y"
      ],
      [
        "c",
        "all"
      ],
      [
        ".",
        "."
      ],
      [
        "j",
        "e"
      ],
      [
        "f",
        "er"
      ],
      [
        "te",
        "m"
      ],
      [
        "N",
        "or"
      ],
      [
        "S",
        "h"
      ],
      [
        "g",
        "u"
      ],
      [
        "u",
        "al"
      ],
      [
        "at",
        "ive"
      ],
      [
        "man",
        "y"
      ],
      [
        "be",
        "ing"
      ],
      [
        "po",
        "int"
      ],
      [
        "un",
        "t"
      ],
      [
        "ep",
        "is"
      ],
      [
        "al",
        "e"
      ],
      [
        "u",
        "ary"
      ],
      [
        "ou",
        "p"
      ],
      [
        "on",
        "d"
      ],
      [
        "in",
        "ce"
      ],
      [
        "o",
        "de"
      ],
      [
        "vel",
        "op"
      ],
      [
        "again",
        "st"
      ],
      [
        "A",
        "t"
      ],
      [
        "num",
        "ber"
      ],
      [
        "ur",
        "y"
      ],
      [
        "u",
        "se"
      ],
      [
        "p",
        "ed"
      ],
      [
        "si",
        "de"
      ],
      [
        "le",
        "ad"
      ],
      [
        "in",
        "s"
      ],
      [
        "sh",
        "ow"
      ],
      [
        "char",
        "ac"
      ],
      [
        "Af",
        "ter"
      ],
      [
        "f",
        "t"
      ],
      [
        "se",
        "ver"
      ],
      [
        "B",
        "e"
      ],
      [
        "m",
        "em"
      ],
      [
        "1",
        "6"
      ],
      [
        "au",
        "se"
      ],
      [
        "w",
        "ar"
      ],
      [
        "p",
        "ar"
      ],
      [
        "appe",
        "ar"
      ],
      [
        "l",
        "ong"
      ],
      [
        "f",
        "ound"
      ],
      [
        "re",
        "ce"
      ],
      [
        "i",
        "ous"
      ],
      [
        "bec",
        "ame"
      ],
      [
        "1",
        "2"
      ],
      [
        "B",
        "rit"
      ],
      [
        "as",
        "h"
      ],
      [
        "includ",
        "ing"
      ],
      [
        "li",
        "ke"
      ],
      [
        "Un",
        "ited"
      ],
      [
        "ser",
        "v"
      ],
      [
        "i",
        "o"
      ],
      [
        "bo",
        "th"
      ],
      [
        "h",
        "n"
      ],
      [
        "es",
        "e"
      ],
      [
        "or",
        "n"
      ],
      [
        "ser",
        "ies"
      ],
      [
        "S",
        "e"
      ],
      [
        "19",
        "8"
      ],
      [
        "fe",
        "at"
      ],
      [
        "is",
        "e"
      ],
      [
        "c",
        "y"
      ],
      [
        "o",
        "st"
      ],
      [
        "l",
        "ine"
      ],
      [
        "c",
        "ri"
      ],
      [
        "m",
        "i"
      ],
      [
        "ig",
        "in"
      ],
      [
        "19",
        "4"
      ],
      [
        "d",
        "id"
      ],
      [
        "end",
        "ed"
      ],
      [
        "S",
        "he"
      ],
      [
        "er",
        "al"
      ],
      [
        "de",
        "velop"
      ],
      [
        "ro",
        "p"
      ],
      [
        "t",
        "ri"
      ],
      [
        "m",
        "ill"
      ],
      [
        "cont",
        "in"
      ],
      [
        "ment",
        "s"
      ],
      [
        "di",
        "re"
      ],
      [
        "le",
        "y"
      ],
      [
        "c",
        "er"
      ],
      [
        "it",
        "ies"
      ],
      [
        "u",
        "res"
      ],
      [
        "d",
        "own"
      ],
      [
        "oc",
        "k"
      ],
      [
        "En",
        "g"
      ],
      [
        "su",
        "c"
      ],
      [
        "p",
        "op"
      ],
      [
        "3",
        "0"
      ],
      [
        "di",
        "ff"
      ],
      [
        "he",
        "ad"
      ],
      [
        "Jo",
        "hn"
      ],
      [
        "de",
        "c"
      ],
      [
        "ro",
        "ad"
      ],
      [
        "r",
        "un"
      ],
      [
        "p",
        "ass"
      ],
      [
        "a",
        "z"
      ],
      [
        "epis",
        "ode"
      ],
      [
        "ir",
        "d"
      ],
      [
        "u",
        "ch"
      ],
      [
        "W",
        "ar"
      ],
      [
        "s",
        "aid"
      ],
      [
        "le",
        "g"
      ],
      [
        "w",
        "est"
      ],
      [
        "ou",
        "se"
      ],
      [
        "W",
        "or"
      ],
      [
        "c",
        "ould"
      ],
      [
        "p",
        "or"
      ],
      [
        "res",
        "s"
      ],
      [
        "ers",
        "on"
      ],
      [
        "sever",
        "al"
      ],
      [
        "m",
        "is"
      ],
      [
        "Amer",
        "ican"
      ],
      [
        "kn",
        "own"
      ],
      [
        "per",
        "i"
      ],
      [
        "R",
        "o"
      ],
      [
        "or",
        "igin"
      ],
      [
        "v",
        "id"
      ],
      [
        "v",
        "ol"
      ],
      [
        "l",
        "in"
      ],
      [
        "iel",
        "d"
      ],
      [
        "19",
        "7"
      ],
      [
        "c",
        "he"
      ],
      [
        "comp",
        "le"
      ],
      [
        "ar",
        "ch"
      ],
      [
        "re",
        "st"
      ],
      [
        "is",
        "ed"
      ],
      [
        "19",
        "6"
      ],
      [
        "1",
        "4"
      ],
      [
        "I",
        "I"
      ],
      [
        "c",
        "ord"
      ],
      [
        "F",
        "or"
      ],
      [
        "u",
        "ally"
      ],
      [
        "s",
        "ign"
      ],
      [
        "sel",
        "f"
      ],
      [
        "mus",
        "ic"
      ],
      [
        "G",
        "r"
      ],
      [
        "st",
        "em"
      ],
      [
        "c",
        "ar"
      ],
      [
        "re",
        "main"
      ],
      [
        "ret",
        "urn"
      ],
      [
        "b",
        "ed"
      ],
      [
        "ce",
        "pt"
      ],
      [
        "be",
        "gan"
      ],
      [
        "op",
        "er"
      ],
      [
        "des",
        "ign"
      ],
      [
        "G",
        "er"
      ],
      [
        "tr",
        "y"
      ],
      [
        "B",
        "r"
      ],
      [
        "st",
        "e"
      ],
      [
        "t",
        "ing"
      ],
      [
        "op",
        "le"
      ],
      [
        "cho",
        "ol"
      ],
      [
        "s",
        "m"
      ],
      [
        "st",
        "ate"
      ],
      [
        "ear",
        "ly"
      ],
      [
        "1",
        "3"
      ],
      [
        "ak",
        "ing"
      ],
      [
        "he",
        "l"
      ],
      [
        "a",
        "h"
      ],
      [
        "c",
        "over"
      ],
      [
        "rele",
        "ased"
      ],
      [
        "ne",
        "ar"
      ],
      [
        "d",
        "ist"
      ],
      [
        "b",
        "all"
      ],
      [
        "iv",
        "ed"
      ],
      [
        "des",
        "cri"
      ],
      [
        "C",
        "ol"
      ],
      [
        "unt",
        "il"
      ],
      [
        "U",
        "S"
      ],
      [
        "call",
        "ed"
      ],
      [
        "je",
        "ct"
      ],
      [
        "un",
        "e"
      ],
      [
        "suc",
        "cess"
      ],
      [
        "op",
        "en"
      ],
      [
        "pres",
        "ent"
      ],
      [
        "pl",
        "ac"
      ],
      [
        "tr",
        "ans"
      ],
      [
        "m",
        "en"
      ],
      [
        "S",
        "c"
      ],
      [
        "T",
        "r"
      ],
      [
        "f",
        "am"
      ],
      [
        "ar",
        "r"
      ],
      [
        "h",
        "ist"
      ],
      [
        "ros",
        "s"
      ],
      [
        "ol",
        "og"
      ],
      [
        "M",
        "ay"
      ],
      [
        "k",
        "ing"
      ],
      [
        "h",
        "y"
      ],
      [
        "off",
        "ic"
      ],
      [
        "g",
        "et"
      ],
      [
        "b",
        "and"
      ],
      [
        "i",
        "ally"
      ],
      [
        "c",
        "rit"
      ],
      [
        "over",
        "n"
      ],
      [
        "g",
        "g"
      ],
      [
        "v",
        "al"
      ],
      [
        "gr",
        "oup"
      ],
      [
        "g",
        "ust"
      ],
      [
        "l",
        "ess"
      ],
      [
        "ist",
        "s"
      ],
      [
        "m",
        "ay"
      ],
      [
        "al",
        "ong"
      ],
      [
        "v",
        "ent"
      ],
      [
        "v",
        "es"
      ],
      [
        "m",
        "s"
      ],
      [
        "5",
        "0"
      ],
      [
        "n",
        "am"
      ],
      [
        "b",
        "ers"
      ],
      [
        "mill",
        "ion"
      ],
      [
        "ow",
        "er"
      ],
      [
        "C",
        "l"
      ],
      [
        "m",
        "il"
      ],
      [
        "Brit",
        "ish"
      ],
      [
        "to",
        "w"
      ],
      [
        "j",
        "or"
      ],
      [
        "x",
        "t"
      ],
      [
        "v",
        "ing"
      ],
      [
        "S",
        "ep"
      ],
      [
        "s",
        "im"
      ],
      [
        "b",
        "re"
      ],
      [
        "c",
        "ast"
      ],
      [
        "the",
        "se"
      ],
      [
        "m",
        "et"
      ],
      [
        "com",
        "e"
      ],
      [
        "en",
        "n"
      ],
      [
        "fe",
        "ct"
      ],
      [
        "a",
        "ther"
      ],
      [
        "r",
        "ic"
      ],
      [
        "iz",
        "ed"
      ],
      [
        "att",
        "ack"
      ],
      [
        "oc",
        "i"
      ],
      [
        "c",
        "ut"
      ],
      [
        "te",
        "mber"
      ],
      [
        "c",
        "le"
      ],
      [
        "W",
        "il"
      ],
      [
        "n",
        "ational"
      ],
      [
        "str",
        "al"
      ],
      [
        "S",
        "p"
      ],
      [
        "n",
        "ow"
      ],
      [
        "Sep",
        "tember"
      ],
      [
        "Au",
        "gust"
      ],
      [
        "Wor",
        "ld"
      ],
      [
        "ur",
        "ed"
      ],
      [
        "St",
        "ates"
      ],
      [
        "re",
        "qu"
      ],
      [
        "st",
        "or"
      ],
      [
        "le",
        "t"
      ],
      [
        "to",
        "ok"
      ],
      [
        "b",
        "att"
      ],
      [
        "contin",
        "u"
      ],
      [
        "lar",
        "ge"
      ],
      [
        "s",
        "ame"
      ],
      [
        "pe",
        "ople"
      ],
      [
        "J",
        "u"
      ],
      [
        "de",
        "p"
      ],
      [
        "charac",
        "ter"
      ],
      [
        "o",
        "ot"
      ],
      [
        "un",
        "d"
      ],
      [
        "bec",
        "ause"
      ],
      [
        "vi",
        "de"
      ],
      [
        "C",
        "ar"
      ],
      [
        "i",
        "b"
      ],
      [
        "l",
        "ight"
      ],
      [
        "v",
        "ar"
      ],
      [
        "gr",
        "ap"
      ],
      [
        "pos",
        "ition"
      ],
      [
        "re",
        "ad"
      ],
      [
        "1",
        "1"
      ],
      [
        "is",
        "m"
      ],
      [
        "res",
        "ult"
      ],
      [
        "ar",
        "ound"
      ],
      [
        "ir",
        "ed"
      ],
      [
        "O",
        "c"
      ],
      [
        "st",
        "art"
      ],
      [
        "I",
        "s"
      ],
      [
        "k",
        "m"
      ],
      [
        "av",
        "ing"
      ],
      [
        "cl",
        "ass"
      ],
      [
        "ct",
        "or"
      ],
      [
        "we",
        "e"
      ],
      [
        "iver",
        "s"
      ],
      [
        "B",
        "l"
      ],
      [
        "J",
        "an"
      ],
      [
        "s",
        "k"
      ],
      [
        "A",
        "d"
      ],
      [
        "c",
        "our"
      ],
      [
        "a",
        "im"
      ],
      [
        "Au",
        "stral"
      ],
      [
        "p",
        "on"
      ],
      [
        "form",
        "ed"
      ],
      [
        "sup",
        "port"
      ],
      [
        "o",
        "th"
      ],
      [
        "vis",
        "ion"
      ],
      [
        "m",
        "ark"
      ],
      [
        "l",
        "a"
      ],
      [
        "bu",
        "ild"
      ],
      [
        "c",
        "a"
      ],
      [
        "follow",
        "ing"
      ],
      [
        "in",
        "c"
      ],
      [
        "nor",
        "th"
      ],
      [
        "li",
        "fe"
      ],
      [
        "all",
        "ow"
      ],
      [
        "ant",
        "s"
      ],
      [
        "si",
        "x"
      ],
      [
        "sy",
        "stem"
      ],
      [
        "t",
        "al"
      ],
      [
        "H",
        "owever"
      ],
      [
        "or",
        "k"
      ],
      [
        "is",
        "on"
      ],
      [
        "tr",
        "ack"
      ],
      [
        "Oc",
        "to"
      ],
      [
        "P",
        "l"
      ],
      [
        "p",
        "rom"
      ],
      [
        "cons",
        "id"
      ],
      [
        "af",
        "t"
      ],
      [
        "e",
        "ach"
      ],
      [
        "rece",
        "ived"
      ],
      [
        "ur",
        "ch"
      ],
      [
        "Octo",
        "ber"
      ],
      [
        "ri",
        "st"
      ],
      [
        "w",
        "ill"
      ],
      [
        "im",
        "e"
      ],
      [
        "ain",
        "ed"
      ],
[...]
